#version: 0.2
i n
e r
o u
r e
o n
e n
i t
i s
n d
in g
e s
l l
e d
i c
u s
e t
v e
' s
i on
en t
er e
u t
i d
i g
k e
v er
i m
r o
ou t
i r
l d
c t
i f
. .
it h
h t
q u
ha ve
a n
s t
i ll
es t
' t
us t
a s
i l
t h
ou r
ig ht
at ion
Ñ Ĥ
s e
li ke
a t
i e
c h
a l
o r
om e
p p
you r
ou ld
er s
' re
the y
us e
a ll
Th e
es s
ver y
a b
kn ow
Ñ ģ
a nd
l e
' m
ic h
Ñ Ģ
id e
.. .
ã ģ
i ve
fr om
ac k
it y
ou g
u n
p e
as t
Ã ©
w ant
am e
i es
s o
u re
os e
a re
on e
c k
op le
the n
the m
ou nd
os t
on g
e ct
ou s
p l
tim e
wh o
ic e
ac t
n t
oug h
Ñ ĥ
wor k
i z
i v
a r
' ve
f f
' ll
a ct
ac h
the se
a d
th er
ac e
ic k
a ke
re at
i re
u e
a g
u ch
ion s
0 0
ha d
the ir
it e
ne ed
w ere
i p
ow n
om et
b e
as e
ma ke
ir st
i a
en ce
con t
o ther
p t
be en
a m
u ally
h e
w ay
Ñ Į
d if
p er
Ñ ı
on d
ar s
in t
or m
s omet
a c
Ñ ĭ
Ä ±
itt le
l ittle
m uch
n e
an ce
h er
thing s
ul t
re s
c ould
tw o
x t
el y
th r
is h
dif fer
somet hing
y s
sh e
l o
Ñ ĩ
ã Ģ
Ð ½
ad e
ation s
of f
act ually
at ed
at er
ve l
ha pp
on na
ig n
ent s
ou nt
i ld
v ing
g onna
ot her
ic al
e l
thr ough
com e
d ay
i er
í ķ
differ ent
sh ould
ar y
ã Ĥ
th ing
w e
or y
f ter
or s
i al
f orm
v ide
à ¸
ver s
fe el
od y
e m
g et
sa id
it ion
i ous
at ch
tr y
u ll
Ð ²
ÑĤ Ð¾
g r
if e
man y
l a
à ®
ad y
ct ion
. "
> >
ot h
u al
f ul
ig h
er t
s ame
me an
en d
ur n
sel f
b s
oug ht
ä ¸
p h
i an
i ly
pers on
ne xt
vide o
ma k
i ble
to day
er m
ow er
i x
imp ort
t e
te ll
Ð º
ic ally
ic t
su re
be l
at ing
did n
Ø §
u nd
at h
o p
Ð ¾
wor ld
su pp
c our
Ð ¸
al ways
u p
ha nd
ci al
con s
in d
j ect
at es
n um
ul ar
´ ì
We ll
pe ct
Ã £
ã ĥ
in v
happ en
i en
Ð¾Ð ²
â Ģ
m ight
o wn
Ð ´
an other
gu ys
ab le
Ã£ o
qu e
id ent
pro du
ar n
Ð ¼
ex per
f am
it ies
if ic
i ed
o ol
ie w
don e
ëĬ Ķ
bet ter
c ome
t y
u m
ing s
o b
c om
ble m
op e
' d
ment s
i ke
iz e
c are
ne ver
ol og
u ck
ex am
il ity
c us
at ter
pre t
d er
cour se
Å Ł
at ive
ic s
quest ion
ut e
at her
i end
does n
i ence
e ach
i el
ab ly
ì Ŀ
to p
e as
i ent
y e
ll ow
every thing
om m
ļ Ķ
it s
Ù Ħ
to get
toget her
al ready
Ð°Ð »
call ed
al e
Å Ĥ
under stand
it ed
Ð¾Ð »
z y
num ber
ãĢ ģ
c ed
in ce
look ing
pret ty
get ting
u ff
u es
ou p
ent ion
Ð¾Ð ¼
for m
as s
as on
we en
su ch
ir d
Ð°Ð º
Ä Ļ
part ic
fr iend
ex t
ÑĤ ÑĮ
or k
mo ve
h o
c o
in s
á »
al th
u res
em ber
a v
one y
u c
im e
ou se
mus ic
in ess
an y
fe w
´ ë
s ort
me m
c a
ce pt
any thing
e in
ur ing
wor d
- -
bel ie
t o
Ð ¿
me ans
sm all
00 0
w h
exam ple
de p
ä º
ot e
de m
t ri
ch n
who le
try ing
c ou
et s
vel op
à ¯
prob ably
o kay
s it
¸ ë
m e
p oss
so l
ic ht
supp ort
ert ain
start ed
c ap
dat a
tim es
ÐµÐ »
want ed
talk ing
is t
ha ving
um p
cont in
su b
p r
in a
Å ¼
od e
æ ĺ
! !
t erm
is m
Ð¾Ð ´
id er
b r
³ Ð¾
bo ok
ut ion
en e
mak ing
ì ķ
o pp
m oney
st and
s ign
le arn
te am
ic es
æ ľ
a ut
le ad
ation al
d e
n ice
æ Ī
re en
us h
v ious
at ure
ÐµÐ ¼
st uff
ow s
l es
ro p
ç ļ
g e
s ing
ar t
fo llow
20 1
å °
Ã ł
im es
re t
ch ang
p ub
iv es
æĺ ¯
look s
ãĢ Ĥ
Ð ·
çļ Ħ
en ough
it ch
ä »
ad v
Ð ±
with out
mer ic
d en
compl et
ide a
ter s
o ck
def in
e ver
br ing
say ing
an s
he ar
n ect
g o
re am
ì ŀ
ent e
w om
some one
d u
cont ro
ort un
con c
inform ation
at t
at ely
ä ½
qu ite
ug ht
m an
iz ed
rem ember
fam ily
bus iness
spe c
a u
Ä ħ
g g
d ra
say s
is s
li ve
mom ent
co ol
c ertain
am es
m ust
k id
inc lud
ìĿ Ħ
at or
Ä Ł
h a
are d
se em
ir l
quest ions
in es
e e
æĪ ĳ
Ã¼ r
ser v
n a
or der
mak es
s ince
c on
ct or
me et
al f
Ñģ Ñı
o ve
×ķ ×
i et
Ð°Ð ¼
su per
k s
pt ion
m a
belie ve
¬ ë
Ð¾Ð ¹
qu ick
h r
à ¹
go es
spe ak
em ent
m iss
a w
des ign
pro ject
i j
ant s
at s
Ch r
re qu
as ter
partic ular
stud ents
ou n
l ich
en g
os ed
a pp
it ing
ist s
exper ience
st ay
fo od
ru ct
in ing
m ost
i vers
b o
ãģ Ħ
g en
p lease
commun ity
c e
n o
b ody
á º
ê °
re ason
l ater
Ï Ħ
Ð¾Ð ½
å ¤
Å Ľ
iel d
p ast
olog y
er ing
an na
t er
Ã³ n
eff ect
your self
and o
ur al
? "
s ide
be come
o od
ut es
p ain
ire d
unt il
Ð°Ð ²
d uring
l ess
f ect
i ver
ı Ħ
ith er
y ing
be gin
×Ļ ×
iv id
Ã §
t a
ins ide
friend s
le ave
en n
eas y
al ity
ou d
e at
or n
sa w
be aut
¼ ë
m atter
res ult
id es
ch e
f ut
fo cus
interest ing
å ¥
a p
" .
cre ate
r oss
p ick
l ine
to ok
ĺ ë
r act
are nt
ex act
w ork
to ld
pub lic
ci ally
v iew
He y
m ed
ll o
c c
f ac
cou ple
re ady
al most
ar ing
av or
i que
char ac
an e
l ish
he ad
le ast
bas ically
as ed
r ight
tak ing
is n
poss ible
inc re
w anna
cons ider
with in
hum an
think ing
o h
¡ ľ
as es
it ely
ä¸ į
inv est
su c
ion al
wh ether
contro l
again st
ot s
ëĭĪ ëĭ¤
i or
pres ent
watch ing
u be
er v
n icht
ug h
a ir
Ð°Ð ·
is ion
wh ere
to t
Ð µ
cl ose
in ed
° ë
or ry
if t
2 0
happen ed
ward s
p our
el t
s ense
le x
us s
ri b
fut ure
er o
what ever
gu ess
r on
w ond
dire ct
of ten
al ong
sit u
happ y
e ad
my self
Ð¾Ð ±
t en
ex pect
was n
if ul
opp ortun
in al
y le
sh are
tr ue
ch all
min utes
ch ann
l i
m ess
or ies
pe cially
wr ong
ì Ĺ
ir on
su bs
f ore
way s
sh ort
Wh o
en joy
ac cess
f e
ac ross
er y
vious ly
id ed
term s
ac es
l and
az ing
m ult
spe cial
å Ģ
iv ing
ty p
å ı
å¥ ½
rese arch
à¯ į
ma in
defin itely
e ither
list en
iz ation
vide os
ull y
am os
m ention
inter n
r al
ur s
c le
Ð¾Ð ¶
ľ ë
ä½ ł
sing le
a uch
cus s
somet imes
å ¾
c ing
per fect
out h
ì ł
s ci
p ar
re d
ele ct
it ive
des cri
Ī ë
i um
sim ple
l ar
every body
il ar
need s
dif fic
Go od
um ent
c ent
o per
et y
gi ven
we l
é Ģ
ou ch
sh o
con d
m y
ÐµÐ ´
ìķ Ħ
ter n
p ull
re w
comp any
beaut iful
ust om
am azing
ri es
suc cess
m ach
n ot
dis cuss
¦ ¬
diffic ult
bu y
ä¸ Ģ
ma g
p o
beh ind
ic a
Ä± n
wom en
en v
chann el
i ally
u le
th ers
b ott
rep ort
ent ly
f ully
T he
ev ent
word s
d le
a head
ard s
äº Ĩ
to ol
con om
exact ly
f avor
pro per
rel ations
kid s
ent ire
ud e
on es
ol ut
il i
happ ens
ain s
mod el
p ict
es pecially
k t
b y
ro du
an n
subs cri
av ail
im ent
ap er
ì §
į °
j or
ar ning
Ð ³
Ð »
ÐµÐ ¹
y es
å ħ
Ð¾Ð ³Ð¾
ask ed
il t
Ð¾Ð ³
contin ue
o thers
oh n
bas ed
pro p
Ģ ë
m in
prot ect
am ount
c ustom
c ult
hand s
ha ven
out side
ap s
pl oy
t reat
e p
m ater
å Ĳ
ìĦ ľ
ught er
ne y
et er
at ic
mo v
ĵ ¤
s um
ph ot
æľ ī
fin ish
itt ing
å ®
lar ge
ì ĸ
ar a
ma is
He llo
s le
o pt
ri ed
¥ ¼
n Ã£o
T h
avail able
å Ī
ear ly
wond er
± °
mor ning
ll e
i ents
u x
it ions
y or
m p
ak ing
Į ë
mill ion
ind ivid
govern ment
am ent
ch en
W h
ãģ §
ur ch
tr ad
relations hip
d ou
s we
in ation
i pp
f ine
Ã¡ s
month s
, "
hour s
ir t
inv ol
coll ect
hist ory
m b
if y
bel ow
as ure
lang u
an t
at o
ë ĭ
tak es
charac ter
a ff
e conom
ie f
å ľ
ê ²
on y
mater ial
ph ys
imp ro
sim ilar
pos ition
Ã Ł
re ad
um e
cle an
co ok
seem s
o l
J es
ent ial
ivers ity
ac y
olut ely
rep res
t ouch
m en
Ð °
i Ã³n
an g
ma jor
it self
ill s
" ,
i ans
h or
know n
env iron
fin al
fig ure
e yes
see ing
ha ir
re m
app lic
p ut
new s
complet ely
ugh s
kn ew
if ied
situ ation
m s
d o
ur y
ip s
Ð°Ð ´
inst ead
hu ge
det ail
individ ual
cl os
w er
un e
con vers
rec omm
com o
some body
ìĿ ´
pl es
of fer
ition al
l et
ic y
feel ing
Ð¾Ð º
ser ies
An y
is ed
o ld
dra w
serv ice
can not
li ving
Ä± m
differ ence
opportun ity
ne ar
loc al
d ass
Ĳ ×
quick ly
ra ph
iss ues
éĢ Ļ
pre p
en ces
prof ess
ll ing
o f
fo ot
b re
us ually
gener al
d a
an ces
o cc
mem bers
d ans
equ al
z t
be com
mo ving
spec ific
ÃŃ a
comm on
Ñį ÑĤÐ¾
acc ount
gra nd
s elf
t ast
cont ent
Ħ ë
Jes us
ore s
p ort
© ´
g ives
imp act
s h
i os
P res
U nd
fin ally
do ll
voc Ãª
tak en
f ort
g ave
l ost
work ed
iss ue
ret urn
happen ing
want s
problem s
Ŀ ¼
Al so
ob viously
recomm end
our ces
ast ic
.. ..
l ier
ci a
would n
un t
ck s
os p
l ight
bott om
ore d
is on
v a
ress ion
ul ation
id ence
re du
it a
ic o
er al
g u
d Ã©
ap t
a ch
se ver
5 0
s ie
comp ut
mid dle
could n
m ing
ì ĭ
g ames
c ell
p or
sle ep
id ing
de g
dr ink
environ ment
Un ited
talk ed
cho ose
e ge
r ather
off ic
ac hing
mention ed
n ie
ib ility
v ac
s end
comp et
long er
å° į
langu age
ext ra
pl ay
we bs
um b
ro om
ç ľ
begin ning
re fer
ig her
f ace
er c
for get
com ment
ÐµÐ º
r or
Å¼ e
d ark
any one
ant e
ìĬ µ
Ñ ĳ
j e
ruct ure
pr im
id a
è ¦
m ix
start ing
ìĿ ´ë
prov ide
per iod
You T
techn ology
b ed
expl ain
im ate
repres ent
How ever
li ves
ut h
ir it
og n
li k
pri v
to m
Ã§ Ã£o
i am
exc ited
gr ound
× Ķ
s ens
te ach
id o
h od
ep is
wel come
ä ¹
ch ance
Ä ĳ
sim ply
j a
b ook
sever al
st e
creat ed
p ush
= =
h igher
u f
our ce
on line
re le
t on
ens ive
favor ite
look ed
v on
but ton
b ill
chang es
ab les
and s
ate g
them selves
ãģ £
ug hing
ad es
need ed
stud y
ÑģÑĤ Ð²
in o
dis c
add ress
itt en
es ome
Ð ¶
¤ ë
ur a
contin u
f or
m atch
stra ight
Ĳ ë
n ers
do g
de b
o s
c ame
cor rect
et te
Se e
includ ing
Eu ro
est er
j ump
s on
y a
IN G
e ine
os h
en cy
med ia
subscri be
é Ĥ
pr in
ha b
it or
to wards
tri ed
en ge
art ment
var i
pict ure
br ought
St ates
s ich
per cent
go d
dec ided
se lect
) .
ur ity
fur ther
com ments
le ment
d ream
m i
wom an
f ail
be came
l us
il ities
man age
rec ogn
act ion
bene f
ear lier
m ent
sho ot
u i
Ã ¤
app ly
v o
x im
ca use
sur pr
ha ben
Ne xt
YouT ube
g ress
tra ining
interest ed
chang ed
iss ion
stud ent
og raph
appro ach
show s
å° ±
cr it
g lo
ìĬµ ëĭĪëĭ¤
de ad
Pres ident
th ous
b al
e x
abs olutely
pract ice
og le
se par
b all
re view
o k
exper ien
conc ern
ent ially
m ore
ap an
ist ic
f air
webs ite
i res
tra vel
parent s
sa ve
ser ious
in it
und red
or row
wor th
se arch
part s
ÑģÑĤ ÑĮ
comp an
mov ie
met hod
w ish
it em
min us
ang er
are as
Ð°Ð ¹
o il
c y
s y
f ix
est Ã¡
iv ed
lot s
un k
att ention
a ge
b ack
c il
net work
do c
ig en
end er
tot al
pr ice
cra zy
i qu
th ough
Y ou
ãĤ ĵ
s at
sh a
thank s
u h
Ð°Ð ¶
le av
bo y
a f
si ÄĻ
hon est
ãĢ Į
re pl
develop ment
ãĢ į
ä ¾
know s
week s
Ķ ë
h undred
sound s
learn ed
Ñģ ÑĤ
inc red
â Ļ
b en
sa fe
f uck
so ci
cr oss
1 0
m o
å ķ
set ting
invol ved
ar ily
s ind
s us
wor ry
h ier
certain ly
ou l
ort s
ca us
Ã ¼
Se c
æ ²
educ ation
mult ip
è ¿
m on
iz ing
pp ed
press ure
th e
it es
att le
serv ices
Go ogle
é ģ
dri ve
chall eng
ìľ ¼ë
v al
åĢ ĭ
ff ic
r a
aff ect
as ing
sign ific
ê ³
pos itive
ord ing
Fr om
bra nd
tr ust
p le
commun ic
ta x
J apan
íķ ĺ
Ï Ĥ
put ting
Americ a
re g
ŀ ×
at ures
ens ion
S omet
product s
ãĥ ¼
cont act
ol ution
go al
blo od
at ors
tem per
su gg
off ice
ar ri
sugg est
Ĥ ĺ
1 9
o m
C ent
ill e
con cept
Ã¼ n
ive ly
d iv
æ ī
feel s
ak es
partic ip
f l
j ust
got ta
chall enge
compan ies
Ð¾Ð ·
is ing
em ic
am ente
meet ing
vis it
supp osed
or ld
3 0
U S
not ice
ì ĺ
h h
tr ou
up d
blo ck
d ue
cou n
âĢ Ķ
typ es
ë §
impro ve
a ve
ul es
c l
am ed
aw esome
v ot
mach ine
follow ing
me asure
ac iÃ³n
u el
ch an
ab ility
t out
ide as
incre ase
en s
Ñ ħ
ë ª
tr uth
h y
sp end
sci ence
et e
epis ode
ar i
ll a
thr ow
m it
å ¹
cir c
t our
dire ction
ÐµÐ ²
count ries
indust ry
in y
ic le
fe et
I t
lead ers
et zt
st aff
ç Ķ
pur p
it o
et ic
Ch ina
Un iversity
dec ision
ach ie
act ual
u ly
result s
ib ly
num bers
om b
è ª
m er
aut om
co ld
Ħ ľ
ag er
S ie
ug g
ain ed
up on
lo g
complet e
bra in
o ver
eas ier
m Ã¡s
turn ed
st ri
iv al
he av
ÑĢ Ð°
åľ ¨
å¤ §
cl a
tell ing
ic ated
ä» ¥
ac ht
h aps
St e
res ources
d ann
sa f
is es
t re
o int
know ledge
any more
ma int
å ĳ
Y ork
b ien
o d
eas ily
o ption
app reci
oc r
mean ing
dis co
ver age
l ose
em ot
ant ly
Ã¤ t
t amb
em y
ÐµÐ ·
P ol
mess age
not e
Į Ģ
im medi
becom es
res h
Ã¨ s
as ons
him self
ut s
requ ire
system s
am ong
h om
we ird
ë ¶
Ø ©
if f
or ing
plat form
help s
ut ions
for g
l uck
Eng lish
we b
neg ative
t ut
ab ove
ng th
st ories
lo ad
sw itch
prin ci
fin an
var ious
kind s
ain ing
n ature
pr ay
g ar
n s
ra nd
like ly
understand ing
Ä± r
ÑĨ Ð¸
su d
br other
through out
p re
cult ure
Ù ħ
wonder ful
a h
pp er
start s
Î ¯
×Ķ ×
u lt
ra g
squ are
le br
liter ally
play ed
he at
on se
r ict
id s
c atch
Wh at
ÐµÐ ±
a ud
sur face
con v
O h
æ Ģ
pp ing
convers ation
Ð¾Ð ¿
ä¾ Ĩ
Ag ain
t ime
er ve
cap t
Ð°Ð ±
ay s
ific ation
Ã¤ r
e gg
W el
tar get
ul a
ch es
O O
ic ious
n ow
bo ard
g ente
em ail
sp irit
s itting
m as
stre ngth
big ger
pol ice
ress ed
wait ing
is hing
doll ars
s s
imag ine
dis e
id ge
ab or
comput er
go ld
f ing
) ,
ru ction
sol ution
e xt
p atter
ick en
ure d
stand ard
dou ble
is a
direct ly
ac ed
b unch
reg ard
swe et
un ique
tra in
G erm
beh av
pre d
ì ĥ
s et
descri ption
Ã© e
å ĵ
coll ege
applic ation
as k
c red
ub lic
multip le
n i
pres ident
add ed
aqu i
h osp
tool s
bas ic
st ructure
R uss
tot ally
big gest
× ľ
ce lebr
f ait
su ff
¨ ë
m ine
K ore
pre vious
se g
pol icy
Tr ump
vac c
Ã³ w
S y
it ter
polit ical
al s
sha pe
an z
on to
ar ch
am b
ag ram
ct ions
jo in
å Ľ
ł ĩ
cho ice
à¯ ģ
Ñĥ Ñİ
t end
E ar
to r
ev ents
cla im
group s
e ating
rec ently
tast e
sur v
à ¤
sk ills
itt ed
ëĤ ĺ
second s
ì Ħ
ers on
to wn
c and
opt ions
enc our
âĻ ª
move ment
wh e
ig e
ro ll
un f
ì Ĥ
sp read
al d
cons um
op in
it ar
sub ject
car ry
ag ree
care er
sci ent
sud den
f ile
z i
ex cept
é º
pot ential
comp lex
end o
r ais
phys ical
ak er
C ol
power ful
mem ber
ra p
sp ot
f em
Ã© m
iet y
inf lu
d ry
r out
por que
fol ks
la unch
comp on
Wel come
k ann
e es
Ù Ī
any way
äº º
sl ight
u r
rel ig
ext rem
Ä± z
Ã ¶
F ace
inter view
c ute
sec ret
D ep
ex erc
hist or
pri or
av a
ac her
y ond
in ary
N orth
on st
sm art
am s
er ed
fun ny
some where
n es
ment e
creat ing
fam il
soci ety
trans form
includ e
l ike
air s
pers pect
particular ly
show ing
lo ck
real ity
ho ld
ict ion
o on
it ary
dr ug
fe ature
re asons
wr ote
f ant
en a
ke y
ear th
d om
fe atures
flo or
speak ing
t ip
ch urch
ìľ¼ë ¡ľ
à¸ Ļ
ãĤ Į
resp onse
Û Į
ul ations
sl ide
grad u
ci ous
me ant
ã ħ
kind a
m uit
ê° Ģ
r ast
re st
play ers
bro ad
tom orrow
oc ol
Ñģ Ð²
Ä± k
rem ove
rem ind
ave c
ce ll
doc ument
ê·¸ë Ł
ne igh
p Ã¥
as pect
lish ed
our selves
u ce
Ð¿ÑĢ Ð¾
ent y
ad os
um ber
éĤ £
cond ition
ëĬĶ ëį°
sc en
c ast
grow ing
l im
Ã© r
y m
çľ ĭ
os es
sy ch
appe ar
pro gress
eng th
pat ients
Ã¨ re
ìĸ´ì ļĶ
re ci
ep end
Ð°Ð ¿
b atter
ve h
ð Ł
ac com
be at
pain t
cont rib
s ad
Æ °
al es
t ree
ic ed
b and
me chan
cap ital
del iver
fe ar
ŀ ĺ
S outh
b ought
st ress
er a
ìĿ´ ë
is ions
iv ity
help ed
ass ist
immedi ately
mo ved
ann oun
å ¿
sum mer
t un
program s
al ing
ir a
el ess
. )
a verage
è¦ ģ
om an
if ically
ëĭ ¤
tr ick
be gan
v ill
ê ±°
h ow
æ Ń
ber t
ê ¸
temper ature
Ã ²
à¹ Ī
gra ph
mo b
A Y
a el
re pe
dev ice
19 9
te le
ke pt
p a
æ ĸ
ess ion
str ugg
z z
deg ree
help ing
sm ell
per haps
p ro
cont ext
i k
cal cul
éº ¼
b ing
real ize
Ch ar
y t
ìĿ ´ì
d anger
lo ved
purp ose
finish ed
o t
glo bal
ĸ Ī
charac ters
n ur
dam age
pre c
W ir
inst it
ĳ ×
allow ed
to d
ÐµÐ ³Ð¾
j etzt
med ic
small er
ce ed
level s
W e
current ly
cont ract
detail s
ortun ately
st ates
ad just
ant age
re lease
f az
it ude
id en
Ń Ĳ
pre fer
olog ical
Face book
Af ric
mod e
C ity
sh all
Ñ Ħ
im in
u a
be yond
dist rib
v ict
r ate
v ai
success ful
h ous
ah a
est s
disco ver
there fore
pop ulation
s c
sp ent
re l
use ful
t ab
æ Ŀ
con se
qu ant
ay a
b on
åı ¯
Ch in
ound s
ell e
ä¸ ĭ
step s
ton ight
Ð½Ñĭ Ð¹
ren ch
. '
gra b
imp lement
miss ion
clear ly
appreci ate
è Ģ
f resh
ar m
Tw o
ex ec
project s
commun ities
ri ble
reg ion
fre qu
how ever
part ners
min im
famil ies
ev idence
p un
l oss
ma p
any body
chang ing
r ules
organ ization
ess entially
ele ment
æ Ĺ
v irt
are n
em os
Î¿ Ïħ
cond itions
ab e
d ance
walk ing
add itional
full y
f ans
add ition
lik ed
d i
o ff
) :
m ber
å ¯
åĪ °
la use
o der
saf ety
re act
à® ¿
b t
dis app
girl s
S t
fa ith
turn s
we ap
hosp ital
mic ro
St ate
ag n
dec ide
cor ner
di ed
N o
li e
l if
t Ã³
Su per
6 0
priv ate
g ib
ag re
´ì Ħľ
s ig
invest ig
Ñı ÑĤ
en ing
dist ance
war m
dig ital
å¾ Ī
in er
p and
CO VID
r ace
pr oud
te aching
I n
col ors
w ird
u j
id ad
custom ers
connect ed
lay er
achie ve
perspect ive
!! !
end ed
łĩ ê²Į
manage ment
sub st
ser ve
res ist
thought s
ili ar
right s
cons ist
wer den
and om
hur t
i as
be g
rece ived
it ation
me at
ff ee
fam ous
comfort able
èª ª
åĢ ĳ
oth es
med ical
enjoy ed
c ies
eff ort
do ctor
mil itary
b attle
cap ac
af raid
iv il
Ð²Ñģ Ðµ
ys is
¤ í
organ iz
in c
inter act
Chin ese
acc ording
incred ible
kill ed
Ï Ģ
Ñĭ Ð²
school s
ll er
should n
n al
cr is
ch icken
f aster
extrem ely
opp os
ri a
finan cial
exc iting
jour ney
×Ļ× Ŀ
ł ë
mem ory
heav y
pass ed
ÑĢ Ð¸
il es
p sych
spec ifically
l ed
or ge
D em
ord er
cre am
ester day
bu ll
ind ic
k tÃ³
hope fully
um ents
ag en
h ate
ch t
8 0
eff ic
ì§ Ģ
intern et
bud get
proper ty
id ay
ì ļ
ol a
show ed
thous and
po or
us ed
ĥ ½
soft ware
Ø ¨
necess arily
om en
event ually
ish ed
dem and
th reat
s ir
rele ased
ck et
âĢ «
requ ired
v ote
develop ed
at ory
slight ly
Ã ¬
à¹ ī
re et
dise ase
cour t
item s
Ear th
ÑģÑĤ Ð¸
challeng es
Br it
design ed
1 2
hear ing
listen ing
ãģ§ ãģĻ
we aring
pl ic
b a
rece ive
im a
signific ant
C oun
jo bs
offic ial
per m
om s
opportun ities
over all
od es
n ation
or d
rest aur
w enn
k Ã¶n
æ ĥ
opin ion
ãĤ Ĥ
è ¬
Somet imes
ç Ĥ
O U
del icious
ig er
hand le
íķ ľ
o oth
necess ary
ind epend
æ Ħ
ist en
h am
Ã© t
ãĥ ³
mult i
? )
camp us
top ic
r ain
pan el
lar ger
aud ience
econom ic
ol t
stre et
profess ional
In tern
å ¸
in put
c ateg
Ñĭ Ð¹
B LE
re es
ier t
fo ld
d ur
N ational
an ced
fa ire
ut ed
w ild
o i
pre vent
i us
Ã ¨
r ing
tit le
al though
sa uce
s ides
anim als
il ing
at ives
ìĹĲ ìĦľ
des p
consider ed
ar ies
i ers
ein en
s ister
ë ķ
ãĤ ĭ
ri end
a ign
sh own
s ac
s ont
t ien
åķ Ĭ
old er
ie m
tr uly
wind ow
iqu es
ar io
æ² Ĵ
loc ation
Î º
ì ľ
v i
ag ue
dis p
tr ade
crit ical
ê ±
prep ared
H ouse
al u
t ough
tri p
s and
ap art
is f
v is
li br
effect ive
à¸ ²
mag n
muit o
ê µ
lim it
will ing
Ä± ÅŁ
s p
ÐµÐ ³
h i
al t
orig in
ele ments
help ful
fl at
fam iliar
clos er
ad minist
Ð½Ñĭ Ðµ
ç Ħ
rel ative
r andom
part ner
ph one
r ule
w w
sch on
co ffee
connect ion
un it
l og
app l
us ic
any where
separ ate
bo x
d ivid
test ing
s ick
wer en
ä» ĸ
×ľ ×
adv antage
trans fer
' .
find ing
ì¢ ĭ
for t
econom y
l ack
leav ing
å İ
discuss ion
ÐµÐ ¿
g es
us ers
ÅĤ a
dis h
care ful
te acher
opt im
fl u
at ically
ref lect
treat ment
e ed
i ÄĻ
Ã ¹
à® ¾
equ ip
plan ning
sol ve
avo id
p ou
great er
att ract
Ãª n
un a
phot o
er ation
plan et
cop y
vis ual
ir ing
intern ational
la ughing
th ick
hold ing
bring ing
effect s
it Ã©
Ãª me
Sch ool
×ķ× ª
rop ri
Î± Î¹
ad ult
su gar
high light
no body
2 1
Ð¿ÑĢ Ð¸
in nov
ung en
att ach
ed om
å Ĭ
y l
leg al
coll abor
k ing
d own
æ Ļ
ãĤ Ĭ
i h
ous ly
r ap
sol id
gener ally
patter n
à¸ Ń
trans l
in ter
a ult
ë ¨
exp ress
exam ples
ch ose
tell s
ÃŃ s
ain t
æ ¨
N umber
t ap
exper iment
benef it
gener ation
M any
add ing
camp aign
ra w
omm en
s oul
j o
Act ually
am m
ê² ł
ma xim
sal t
c ru
call ing
bas is
keep ing
M or
ed s
ì Ĩ
to do
li ved
ãĤ ī
å® ¶
for ce
å¹ ´
fer ence
al a
occ ur
s k
rec ent
c ars
trad itional
ent le
² Ī
hel d
n ach
Cent er
er en
comm e
re ve
expect ed
ab il
focus ed
i P
or ial
i ro
et c
am ing
y esterday
str ate
Ñ Ĩ
ë ı
activ ity
adv ice
open ing
f in
re la
é ĸ
inst ance
b l
p en
vis ion
if orn
t ick
H e
strate gy
G l
1 5
da ily
hus band
anal ysis
yn am
att empt
bill ion
v ant
for th
al y
behav ior
M as
k an
bl ess
g ut
d ress
è ¯
å ĸ
experien ces
ist a
fight ing
å ·
Ñģ Ðº
most ly
a use
pict ures
mod els
ÑĪ Ðµ
C ount
Å Ħ
ÅĤ o
ep t
A N
trou ble
4 0
ul ate
m ur
produ ce
mar ried
b it
the ory
lead er
è µ
im ages
exp and
pur ch
S an
Christ mas
Aust ral
know ing
z e
s hip
Inst agram
Ind ia
Cal iforn
dra g
n ames
A nd
ill a
sch ed
dest roy
ye ar
v amos
Ã§ a
forg ot
ra ise
re me
cont ain
ra b
g ift
requ est
sh ut
deg rees
benef its
Ñĭ Ðµ
stud ies
end s
every where
op h
er ry
material s
en ed
å į
mu y
wor se
ä» Ģ
dec isions
ion e
i ber
ãħ ĭ
real ized
we ak
Î ¼
sca red
ass um
ï ¿
ï¿ ½
cover ed
S at
individual s
comp ared
1 1
ic les
r ar
br ief
activ ities
f ab
b ar
a st
O ther
class es
o g
miss ing
é Ŀ
w ers
× ©
introdu ce
equ ation
pain ting
us hing
A P
encour age
sh ip
itt ee
iver se
ot a
ãĥ »
exerc ise
thous ands
Californ ia
r ow
ŀ Ī
pand emic
sk ill
b el
dire ctor
mil k
mot ion
cl osed
è ¨
cred it
ah r
che ese
al tern
im ately
s ust
gl ad
high ly
w a
redu ce
b le
ad or
in ated
ion es
ci ent
dep ending
sh aring
ca ught
ra el
me hr
pass ion
ç Ľ
r u
far m
av es
mot iv
ret ch
ru pt
et t
ub s
Japan ese
H all
AUDI BLE
ç ¬
cell s
ik a
el ine
il er
ì £
sk y
IN AUDIBLE
ap ter
g ather
h ol
le ction
sy n
pl ug
r ound
un iversity
h ib
fant astic
k n
Rem ember
in ct
ak s
str ateg
al ive
t ank
r ie
so bre
custom er
¡ Į
L a
wh at
re action
s ession
pl ans
ìĿ´ë łĩê²Į
down load
ì Ļ
u er
c ab
inst r
if ying
team s
Ä± l
go als
is ch
trans port
anim al
cost s
call s
se hr
ì Ī
ri an
d ial
we ather
à¹ Ģ
Pl ay
sh ared
sm ooth
leav es
à® ©
conc ent
ëĲ ĺ
Go vern
dem onst
but ter
sat isf
Īë ¬
recogn ize
F rench
vol ume
ow a
ipp ed
det ect
Ï ĥ
cl othes
Ã µ
m et
cl in
ar r
f riend
st uck
Y e
h and
um a
sc ri
fuck ing
ct ors
jo ining
c ette
i hr
includ ed
ess o
ac ad
s ab
è¿ Ļ
uf act
Rep ublic
ye llow
not es
al ed
m al
in j
ud ible
Ð°Ð ³
set t
mag ic
ens ure
sp ring
sh ock
ãĤ Ī
can cer
Ð Ĳ
gen cy
i i
out put
comm it
ìķĦ ìļĶ
Ñģ Ð°Ð¼
ve y
pe u
c ivil
is c
br ings
an ia
Ä ģ
c raft
mb ol
intell ig
b i
ac ing
y ou
becom ing
em a
å°± æĺ¯
ing red
comm and
upd ate
pre m
open ed
Ħ ¤
stat ement
sc rew
pr ote
t ask
even ing
st itch
in en
B er
m ark
ìĹ Ī
b an
cl im
fre edom
norm ally
ÐµÑģ ÑĮ
å ¦
prov ided
ìŀ Ĳ
ied er
cit iz
cl imate
iz es
å¾ Į
incre asing
li qu
person ally
res p
leg s
ind er
p ed
ë§ İ
dep end
var iety
Is rael
was h
å Ĩ
qu iet
J ew
fore ver
coun ter
ur ance
Any way
ca re
ci Ã³n
ad i
E v
ëĭĪ ê¹Į
Î ±
slow ly
not iced
ier en
fe ll
when ever
! )
å ¼
ord s
us ion
í ĺ
ä¸ Ĭ
i ven
ìĭ ľ
T ur
g er
r is
vers us
Ø§ Ø
ocol ate
plan e
z o
su it
Th is
n erv
ìĤ ¬
em e
a uss
me as
tr Ã¨s
Ñģ Ð»Ð¸
Sec ond
Ð¾Ð»ÑĮ ÐºÐ¾
ch o
it ect
b oss
inc ome
ł ¤
sh ad
M al
op t
art ist
oth ers
vir us
h ung
const ant
scri pt
sn ow
ul f
dev ices
ight s
sal es
ve get
collect ion
got ten
i Ã©n
acc ur
ult y
lead ing
cent ral
f r
Al though
song s
f if
Ð½Ñĭ Ñħ
bel ong
oss ible
ì °
phot os
is l
rela x
s a
US IC
ê ·
man ufact
Tw itter
danger ous
le ar
i ant
âĢ ¦
sudden ly
wor ried
p ap
en o
batter y
m es
âĢ ĵ
use um
te a
for mer
ograph y
applic ations
çĦ ¶
feed back
itch en
yor um
u ed
ig t
Æ° á»
os ition
pr ime
ì£ ł
] .
lo c
exper t
al right
ung s
supp ly
leaders hip
F ra
typ ically
s el
tre es
h ar
wor st
bus y
ant o
B as
present ation
str ange
th in
veh icle
cell ent
7 0
t ired
cris is
t iny
as y
r an
é ĩ
for ces
ident ify
ass ess
Ð¸ÑĤ Ðµ
creat ive
ç Ł
dep artment
init ial
æĪĳ åĢĳ
ak t
inf ect
p ump
áº ¡
v iel
r are
ash ion
em pl
f lex
tr uck
le ct
pl astic
la w
lik es
M AT
í ŀĪ
comm er
c ake
ad m
other wise
He alth
coll e
à¹Ģ à¸
r ub
å¾ Ĺ
æ Ķ
sc r
z um
H im
ch amp
concern ed
don c
equip ment
ta ught
ll ed
iv a
mot or
gu ide
å ī
stop ped
r at
lab or
a im
prep are
Ñ Ī
shoot ing
ann ed
cri pt
en emy
dep ends
n av
b er
i u
fact or
ok ing
b ut
el d
Î µ
g a
Ã© s
bre ad
vol t
was te
keep s
æī Ģ
st or
hon or
un less
col um
Ye ah
includ es
ä¸ Ń
o x
ist ry
à¸ ±
Dep artment
ant a
fing er
st retch
sy mbol
neigh bor
æ ¬
~ ~
A ber
mass ive
C H
ãĤ Ĵ
d ynam
ach e
mon itor
ent ed
E O
rais ed
ist ics
Ú ©
v ou
it en
¡ °
business es
e arn
mob ile
id ade
ha be
l ict
con duct
fed eral
b u
n one
teach ers
Ø§ÙĦ Ø
éģ ĵ
id ents
Ø§ ÙĦ
tre nd
ÐµÐ ¶
al bum
m ich
b ased
à¸ µ
trans ition
Ãµ es
h ost
ed y
p an
ij n
capac ity
breat h
m Ã¼
í Ļ
hing ton
g ain
po int
Y es
Ø ª
i Ã§
sp in
åĲ §
some how
mom ents
mo ves
pred ict
v ra
201 9
¶ Ħ
fund ament
2 5
p ure
is land
invest ment
b ath
hard er
t ips
å Ĺ
elect ron
b ond
od ies
A ug
gib t
tw ice
w ood
cl ar
mas k
honest ly
201 8
' ,
p ens
surpr ised
communic ation
ãģ£ ãģ¦
sp r
wh ose
× Ĳ×
âĢ ĭ
proper ly
g rew
os ing
di vers
em pt
exp ression
áº ¿
just ice
p air
w o
or ter
link s
re nd
up id
H el
M arch
Ñģ ÑĮ
has n
ev alu
ãģ ı
å¤ ©
il os
v en
u an
y ap
s ch
mist ake
din ner
Was hington
organiz ations
av ing
v ÃŃ
birth day
Ù ģ
aff ord
re ven
relationship s
r ough
u ary
P o
c ar
pr ison
l ic
ìł ķ
id den
spec ies
é »
f irm
sc ore
spe ct
compl icated
æ¨ £
oppos ite
pick ed
el er
m ig
Fr ance
techn ical
à¸ ¡
mil es
prim ary
s es
la ughs
b ra
ÅĽ ci
ri age
et ers
Ã ª
olog ies
I S
r ad
ud o
Ä± nd
m ar
ex ch
compet ition
auss i
S erv
re nt
ch ocolate
w ieder
near ly
spe ech
un c
par am
Brit ish
rem ain
à¸ ģ
ur t
Ø ¹
cr ack
ail s
prom ise
pay ing
i ÃŁ
ad apt
mov ies
Ł ¬
æľ ĥ
ter rible
s Ã³
perfect ly
åĳ ¢
j Ã¡
imp ossible
n h
tur ning
B el
ig g
respons ible
incred ibly
ian o
hum ans
setting s
j oy
o ot
deal ing
ill ed
sur round
follow ed
poss ibly
init i
pr os
cand id
ass ign
viol ence
W ell
tamb Ã©m
i ance
B et
As s
is chen
ult imately
pol ic
major ity
éĢĻ åĢĭ
Fin ally
er ap
MAT T
br own
ch a
Ho ly
nerv ous
ipp ing
ÄĻ d
ĵ ľë
¶ Ģ
l ie
çľ Ł
n uc
A pr
é Ľ
Kore a
eg o
Can ada
kÃ¶n nen
comp ar
g anz
M ais
them e
k i
draw ing
az on
t t
tod os
ob vious
we ll
bl ow
ho ok
cir cle
ë³ ´
arch itect
K r
c Ã³
protect ion
eg a
å ĩ
watch ed
ans wers
di et
iv o
pow der
your s
high est
çĤ º
F F
å º
l unch
è¬ Ŀ
set s
mo le
Û ģ
win ter
luck y
respons ibility
sign al
wond ering
a x
cook ing
le g
surpr ise
dem ocr
j ag
cur ious
market ing
Ð Ŀ
ar on
App le
virt ual
19 8
M et
Ð¾Ñģ ÑĤÐ¾
bu ying
restaur ant
B ud
dou bt
gr ant
ver d
c ash
fac ulty
Th at
E in
å¤ ļ
it ness
n arr
acc ident
med ium
em ents
cr ow
n ight
ä¹ Ł
libr ary
Ð°Ñİ ÑĤ
tamb iÃ©n
refer ence
four th
h ouse
v ention
fill ed
C our
ib r
n g
develop ing
prov ides
po ll
tra ffic
arent ly
à® Ł
form s
cl ient
mus s
Cong ress
Ind ian
ce an
p il
ut y
n Ã¤
sp ending
const ruction
ina udible
Īë¬ ´
om a
os en
ag o
lar gest
ãħĭ ãħĭ
un iverse
b es
os a
d ude
M AR
ind eed
Îµ Î¹
man aged
S o
appl ied
fair ly
D en
anal y
const antly
Ñģ Ð¿
H ow
en cies
egg s
à® °
et h
Ent Ã£o
in ar
i ot
c z
Europe an
ãģ Ī
A M
c Ã¡
rad io
§ Į
h ide
ä» Ĭ
eff orts
lus ion
c ities
reach ed
gu id
ro id
har m
cut ting
1 8
i est
Me x
çŁ ¥
after noon
ha ll
pr zy
g osh
influ ence
incre ased
Min ister
dis ci
ver t
men u
ur ally
contin ues
mp re
ÅŁ ey
it ution
c les
Germ an
c zy
B e
k itchen
T ry
i pe
ar p
prov iding
techn ique
h Ã¤r
inf rast
sus p
Ã¼ ck
ic ip
ìĸ ´ë
pr z
compon ent
by e
B ible
iz er
C h
sol utions
accom pl
201 6
I E
ass ume
liqu id
ë¨ ¹
quar ter
fem ale
Th ink
stat us
it ute
co ach
re in
comb ination
è ·
object s
dist rict
make up
mur der
w as
bow l
pub lished
sp orts
ident ity
seem ed
ri x
up load
h ast
M od
ri o
¯ ¸
ust ed
com ing
201 7
on t
leg isl
st ruct
Somet hing
conf lict
u pper
man ager
m ort
f ra
n Ã³
ph ere
L and
fil ter
prom ot
æ °
æĻ Ĥ
ķ ¼
record ing
× Ŀ
associ ated
f uel
und er
ele ction
employ ees
Com p
ÑĢÑĥ Ð³
sa ved
H on
åĪ Ĩ
ac a
p ret
w et
st upid
w ake
great est
serious ly
ì ¹
feel ings
i ation
beaut y
ìŀ ĺ
ĵ ł
- (
cons cious
b ye
ç Ļ
M an
let s
sho es
y d
ä¹ Ī
disapp e
Count y
but t
aqu ÃŃ
conf ig
resp ond
© ëĭĪëĭ¤
divid ed
ac qu
k omm
a Ã§Ã£o
c ut
maxim um
ro g
run s
compon ents
arri ved
conf ident
ÑĢ Ð¾Ð²
he ight
pro ced
talk s
lead s
n ose
f all
b b
Not hing
is er
independ ent
min or
sy m
ci ence
sex ual
b un
h ere
so il
dies e
sh ap
empt y
jour nal
ag on
The ir
week end
ÃŃ t
er ror
è ©
an cy
ìķ Ĭ
ha cer
miss ed
åı¯ ä»¥
ev il
stor age
sing ing
in ha
kn ock
imp ress
Ð¾Ñĩ ÐµÐ½ÑĮ
Go ld
P ort
åİ »
L ond
faz er
ot y
ot o
an x
Will iam
pl ace
Coll ege
l or
E ast
s en
f ach
o ft
experien ced
lo ves
im m
po ly
ì ¤
è §
vict im
G es
v ision
t all
l ens
ì ²
sust ain
arg ument
fact ors
autom atically
fr uit
li ber
a le
Ð ³Ð¾
hundred s
th at
reci pe
I T
è ĩ
áº ¥
descri be
O ct
lat est
th erap
comp are
Am azon
ì¢ Ģ
Russ ia
str ing
k a
Comm un
d ia
I s
mill ions
cor por
cor respond
fix ed
Jo e
Ù İ
view s
r iver
stud io
ig ger
fl avor
pres ence
un its
sa ving
av our
p esso
or ith
h ers
as ion
Fr ank
ÅĤ y
í Ħ
ein em
fun ctions
um an
n orth
ple asure
Ã© es
ind a
expl ore
S T
commer cial
D uring
ar l
] :
f it
æ ³
hous ing
ein er
situ ations
æ ĭ
dec re
appropri ate
% .
b ac
ens ity
Ã¤ h
kn own
it z
emot ional
erv ation
1 6
å¤§ å®¶
jo ined
loc ated
Ñģ Ð¼
ad as
ber g
de ar
c os
ad opt
1 00
ow e
ism o
sim pl
ang ry
sam ple
æĹ ¥
ì Ľ
I N
ul ous
S ar
Sh ow
infrast ructure
Aug ust
less on
n iet
æ İ
fo i
bro ke
t r
ç ķ
g ew
at i
maint ain
art ists
ing er
æĿ ¥
er ved
I A
equ als
oper ation
ill y
crow d
intern al
test s
C ons
ëĦ Īë¬´
w ar
s ou
ch art
J une
Apr il
v ent
qu and
Kore an
im o
ç ī
id ers
mount ain
æľ Ī
ij k
discover ed
S und
so lo
Â ´
sch ol
E ach
ç µ
vÃŃ de
ingred ients
It s
Ŀ¼ ê³ł
ì Ĭ
Ï į
Le e
sc ary
princi p
spirit ual
æ²Ĵ æľī
def ine
N or
bl og
Ð°ÐµÑĤ ÑģÑı
p art
äº ĭ
Und er
part e
se ctor
S ept
om in
cl ients
c i
Fr iday
er as
tw e
ul ated
cult ural
ëį Ķ
Ã º
par ce
à® ²
trad ition
jud ge
determ ine
ne ath
matter s
! ]
po ol
vari able
vacc ine
caus ed
Y ep
f ast
ph ilos
continu ed
unf ortunately
ãģ į
æ ķ
fl ight
w rap
hu h
Abs olutely
p ink
rem ains
S ol
los ing
alg orith
requ ires
found ation
B ur
profess ion
M id
ë ŃĲ
c an
M il
young er
appe ars
ter m
ac le
Lond on
engine ering
à¸ ¢
adv ent
ìĦ¸ ìļĶ
ê¸ °
M aj
ÑĢ ÐµÐ¼
ing u
U K
u ro
s pe
t ent
report ed
A L
H ey
d ent
Austral ia
Jan uary
³ ´
ag ues
ars h
tien e
à¸ £
mach en
un te
elect r
tut orial
pl aced
ìĿ´ ê±°
Coun cil
°ë ¦¬
ah ren
f ol
che ap
ĵ ľ
pur s
om as
æĥ ³
os ter
fil es
be ll
wh om
ex cellent
dat ab
g Ã¶
belie f
sw im
ri al
um in
so ll
ev ol
cha ft
ain e
th let
inc or
report s
defin ition
circ um
produ ced
n et
a ward
d urch
trans p
¦ ¬ë
Ge orge
fly ing
i Ã³
s ources
pl enty
Dem ocr
sec ure
ra in
effic ient
repe at
method s
discuss ed
ser ver
an ie
Inst ead
ide al
con ven
hop ing
T or
he aven
EN CE
hab it
gr ad
fl ag
in e
fac ing
A U
g em
el a
iz za
fe llow
sp oke
citiz ens
u ge
é ĥ½
p ages
f asc
relig ious
ch apter
V al
cons ult
M ill
g l
op er
inf in
mar riage
medic ine
instr ument
Ex act
Ã¡ n
f er
Ñĭ Ñħ
cr ime
th read
w ine
co hol
ph a
à¸ ĩ
og ue
ins urance
arr ator
Sept ember
v id
Sp irit
g est
Russ ian
proper ties
art icle
under neath
jo int
relative ly
desp ite
G ree
class ic
support ing
inst ruct
lus ive
di agn
æ Ĭ
administ ration
æīĢ ä»¥
doll ar
conse qu
o ber
Germ any
ter r
ç ¾
strong er
É Ļ
Ù Ĭ
iP hone
fab ric
Ã¼ h
en em
æ ¯
sub t
ond e
cre w
remo ved
l ady
pot entially
y al
sym pt
ar my
introdu ced
aspect s
1 4
de ploy
p et
h an
weap ons
reg ister
ein fach
sp ort
minim um
w itness
vill age
¦¬ ê³ł
il ed
p itch
b ru
adv ance
ä¸į æĺ¯
supp ose
At t
ÐµÑĤ ÑģÑı
differ ences
ak ed
Ã ¦
iend o
abs ol
tri al
think s
ly ing
cept ion
Afric an
ta pe
convers ations
distrib ution
fl ash
under stood
Govern ment
å° ı
! ?
S k
ri er
Acc ording
Ñİ ÑĤ
sp ons
ÑĤ Ð¾Ð±Ñĭ
val u
ere m
icht ig
resist ance
G al
ger y
beg ins
adv anced
rele vant
polit ics
F am
Ã§ ok
ill ing
foot ball
I D
Afric a
fing ers
Ã ¡
L at
ãĤ Ħ
ì§Ģ ê¸Ī
es se
as ide
æ ŀ
to ward
val id
M ens
complet ed
Ä± ÄŁ
pod cast
Û Ĵ
J uly
il a
pack age
pull ed
ch ar
o is
s outh
import ance
p ushing
stand s
c ill
ä ¼
or i
hom es
concern s
b iz
å ½
b ie
b is
ge ar
áº £
se y
Sec ret
od d
oll y
f ord
repl ace
nav ig
in i
gi ant
ma nd
H app
TI ON
g un
iam o
g ap
class room
hy p
ak i
è ®
is ters
ack s
Ñģ Ð¾
gra v
am in
every day
gard en
ce mber
åĹ İ
Ł °
å ģ
r om
fall ing
fa ult
ell y
pot ato
build ings
oper ating
p are
w r
D on
F our
v ul
l Ã¡
fr ust
D ann
ol es
ny a
× Ľ
a ÃŃ
w ord
weap on
ob t
F all
mix ed
p ode
A S
L eg
des c
spl it
emer gency
S ing
prof it
typ ical
Don c
announ ce
Te x
sac r
tern al
ig o
di am
ph as
def e
Prof ess
dec l
Ñĥ ÑĢ
2 2
ol f
M ond
a y
l em
love ly
gu ar
H H
care fully
you th
There fore
dream s
b odies
techn iques
mechan ism
des ire
V o
qu es
h al
an ish
pract ices
5 00
sort s
ate ful
hers elf
gu itar
prop os
sit es
be ach
ç¬ ¬
dr am
No ve
V E
pl ot
ìĹ¬ ê¸°
C a
estab lished
201 5
insp ired
announ ced
ä¸ ª
process es
ont o
P an
rap id
ist an
19 7
relig ion
sm ile
V ir
sched ule
exec ut
pr on
Ñ į
m usic
g an
def ault
be m
Ù ī
for ced
Ob viously
t ie
drink ing
ser ved
con ference
Exact ly
ãĥ Ī
ł ľ
f ake
dif f
challeng ing
ä»Ģ éº¼
intellig ence
re te
stud ying
app oint
cur ve
A z
Mus ic
f ield
ir ation
fail ed
no vel
different ly
es cape
Oct ober
Ä± yor
descri bed
con vert
ac ement
hot el
is ation
su is
ãģ ĳ
å ŃĲ
æĢ İ
walk ed
2 00
neighbor hood
is p
L os
h idden
Is land
St reet
end a
hip s
os ure
defin ed
à¸ §
lab el
Every body
jo ke
ia o
a thlet
D o
ent ertain
Ã¡ t
polic ies
al cohol
Eng ine
J ud
vol unte
ick s
ag t
× ķ
m Ã¶
1 3
enc oun
or ange
abs or
sp aces
Nove mber
i at
ck now
Dire ctor
pre gn
ìĿ ¼
res ource
ne w
De cember
u its
we il
const ruct
s i
n ic
fl our
rest rict
Ã¼ t
entire ly
break ing
ent lich
tw enty
caus es
ele v
S pr
Intern et
k iss
oper ations
ë Ĭ
scient ists
cour ses
us ual
trans m
Ã± o
nu est
categ ory
Pl us
at mos
wh ile
record s
de ÄŁ
ëĭ¤ ê³ł
ìĤ¬ë ŀ
require ments
in n
imm ig
deep er
ç ´
app s
colle agues
Å¼ y
off ers
t Ã¡
colum n
la ud
exch ange
l as
L aw
is se
ro gen
s ending
he llo
ÅĽ Äĩ
suc ceed
suff ering
ad vert
ì£ ¼
çŁ¥ éģĵ
rec o
Ä±n Ä±
fail ure
ie j
ëķ Į
drug s
cu ando
ìĸ´ë ĸ
Ab out
qu ando
9 0
F ed
1 7
S h
in ho
Sund ay
Ph il
acad emic
In c
maint en
åĩ º
re ward
er d
comm itted
stand ards
int ention
Z h
a cknow
ä ¿
== =
og y
å §
film s
is k
te eth
strugg le
r d
u en
dis s
D ar
am y
enem ies
ve loc
um bs
Ð¸ÑĤ ÐµÐ»ÑĮ
o cean
Ã© d
tre m
ient o
ÐµÑĪ ÑĮ
ffic ient
bott le
instit ution
est y
H an
h ab
ar rest
éĤ Ħ
let ters
oun ce
í Į
A n
creat es
cl ock
deb t
an cient
ific ations
g i
B ut
b order
o ok
est a
ë³ ´ì
w ra
pre ne
ê² Į
ang le
belie ved
ien cy
ak a
crit ic
b omb
ha m
Gu ys
ros oft
cr im
et ch
AR R
a in
á» ĳ
is che
au x
num er
surv ive
A ll
Ł ¬ë
Cour t
tr igger
Ð ŀ
form at
dec ades
c es
sign s
rob ot
Ch urch
a z
s oup
Tex as
ut en
Ñĩ ÑĤÐ¾Ð±Ñĭ
neigh b
ĸ ×Ķ
communic ate
el imin
frequ ency
her n
id os
em phas
mess ages
W enn
pr ices
ol o
C ur
fal se
field s
s Ã©
2 4
u ÅŁ
lay ers
adv oc
dec or
wall s
o e
iss ions
res ol
× ¢
Car ol
V ide
le ep
Y OU
fl ip
sur gery
ch op
U R
. ,
ag ency
want ing
sol ar
hor iz
Ad am
stay ing
ol ic
gr ateful
rem ark
techn ologies
prote in
å¿ ĥ
M ont
should er
z a
re y
ic ar
Ð¾ÑĤ ÑĢ
rout e
b om
deb ate
poss ibility
íķ ´ì
inv ent
Ã¼r lich
prof ile
sen ior
pp y
m undo
ate ver
app arently
en er
ç Ń
prec is
al ign
kn ife
å ĭ
fo ol
inv ite
us ing
circum st
capt ure
d ough
S and
se u
b ite
ne ut
w ide
lect ure
ëĺ Ĳ
origin ally
cho ices
G ar
ver se
19 6
meas ures
Ã§ Ãµes
w ater
ri ve
z ijn
B us
he b
K ar
kill ing
mir ror
m od
m ol
cre ation
est im
atmos phere
t ables
is i
t as
E le
scen es
affect ed
AU DI
Br own
I f
Ù ĩ
çľŁ çļĦ
qu er
íķ ĺë
mist akes
s la
ãĤ ¤
ent r
sh out
port ion
pre viously
á» Ļ
Ð¿ÑĢ ÐµÐ´
Ð¾Ñģ ÑĮ
ç İ
å Ń
åľ ĭ
à¸ °
cri be
Sp anish
offer ed
Ð±Ñĭ Ð»Ð¾
ve ctor
if ts
Î ½
hung ry
Ð ¡
par all
vÃŃde o
iz z
occ up
see k
hous es
consider ing
gradu ate
f ulf
è ¡Į
è £
ext reme
flow ers
it ate
P ri
fundament al
è¯ ´
text ure
į ĺ
AN D
à® ±
T em
n ada
ì§ Ħ
celebr ate
um s
p ill
go ing
h ip
support ed
per man
agre ement
ty m
ë ĳ
ĵ¤ ìĿ´
purch ase
í Ķ
Pl an
eg en
rec over
Mic rosoft
du c
dro pped
p ig
end ing
attack s
be c
re n
r app
ìļ °ë¦¬
× Ļ
ed it
. </
Un ion
scient ific
p unch
ort ion
put s
Mond ay
J er
mat rix
instit utions
ex hib
speak er
met ers
. ]
ser ving
datab ase
L AU
pod er
!! !!
í ĸĪ
A C
It al
se c
ru ck
ou ve
à¸ Ħ
ç Ī
ë§ Įë
ad ing
ur ation
P S
Ð ļ
Un f
è ģ
or ia
man if
sent ence
sign ed
Mus lim
nuc lear
w oll
f avour
vul ner
clos ely
ind ex
ach el
cap able
B es
cro ch
ek t
she et
se es
nat urally
Eng land
particip ate
ex ists
sh arp
break fast
b ow
tw ist
ç §
in ating
ot i
F ound
de ux
select ed
ìł Ħ
os is
present ed
é» ŀ
b ÄĻd
tem por
c able
Ð¿ÑĢ Ð¾ÑģÑĤÐ¾
ÑĤ Ð°Ð¼
è ĥ½
ĺë ıĦ
201 4
U N
Cl ick
pre par
su a
absol ute
eng aged
å¦ Ĥ
d ash
Ã± os
sp o
çĶ Ł
) ]
test ed
bl ank
re ject
ass im
re ar
cr ash
Ð¸ÑĤ ÑģÑı
col on
U nt
C e
ac id
é Ĺ
ib ilities
ut o
valu able
l ist
part ies
col our
ch am
ste el
fund s
D NA
ãĥ ĥ
Happ y
U se
L ight
li p
author ity
L ong
I ran
e ll
co ordin
sub m
record ed
del ta
re form
opp on
allow ing
patter ns
let ting
sleep ing
O kay
p izza
tal ent
ens ions
environment al
profess or
cont ains
ug ar
y o
ı Ļ
sequ ence
Î¹ Î±
ad er
é ł
ÙĨ Ø§
I k
t ous
ur ies
p ounds
ex ternal
im ents
vra iment
happ iness
pr ze
est ic
estab lish
Fl or
r ig
h oney
p ul
sympt oms
br ows
Te chn
Pro gram
up set
gu est
b urg
un like
some what
hang ing
a e
r um
phot ograph
L i
åĽ ŀ
st able
volt age
E ll
entre prene
us es
ass en
¬ ¸
ë§İ ìĿ´
g host
s agen
comb at
g Ã¶r
s Ã£o
K at
form a
sum m
m arch
v ast
Ã¼ k
commit ment
im os
L et
ded icated
ist e
l ay
éĢĻ æ¨£
top ics
mach ines
Par is
ìĿ´ë Ł°
min i
k o
good ness
frame work
ult ure
bas ket
ess a
ust er
ê ¹
ä½ Ĩ
ext ent
Mens chen
consist ent
ri p
m ere
à¯ Ī
e lle
Į Ģë
ok en
pull ing
c ow
out hern
meet ings
c ada
Ð½Ñĭ Ð¼
ient e
b ast
an ing
focus ing
ro ad
ro of
Profess or
ÑĢ Ð°Ð·
no od
ìĿ´ì łľ
ìŀ Ī
M ount
× Ĳ
Wh y
Ä±nd a
pos itions
Ã¨ me
ç ı
i yor
pass ing
sm oke
m useum
Ð Ķ
P erson
le ich
int ent
cra ft
ìĪ ĺ
ors un
15 0
br others
v or
Spe aker
ic ians
offic er
iÃ§ in
ÑĤ ÐµÐ±
scr atch
gener ate
y i
emot ions
a us
4 5
at e
n ative
á» ĩ
Ä± y
en orm
blo cks
fac es
ac c
iven ess
in ches
u is
he it
stre ets
prob ability
im pl
ur day
f aut
om y
p ip
ill ust
à® ¯
J un
l ying
mem ories
pract ical
ian a
on ces
view ers
Th omas
æ Į
Wh ether
innov ation
disapp oint
M y
win ner
rat io
doc uments
form ula
Ñ Ĭ
appe ared
v ar
and on
sp ray
m ak
QU ES
wed ding
R e
Ð°ÑĤÑĮ ÑģÑı
g all
íĦ °
ci o
c ers
pe pper
ãģĹ ãģŁ
Fe bru
altern ative
Bas ically
Sm ith
T am
Wh atever
appro xim
conc ert
ju ice
Es pecially
dynam ic
Q u
ond er
i very
Part y
schol ars
cry ing
Ð ¢
QUES TION
r id
accur ate
Ã§ o
ìĥ ģ
F o
pr Ã³
R oman
check ing
? '
attach ed
Is lam
exper ts
Con st
shad ow
del ay
Ð Ĵ
ë Ĥ
ell en
as ÃŃ
histor ical
un com
om p
pl anned
Unf ortunately
Wind ows
encoun ter
ìĥĿ ê°ģ
regard ing
arr ass
reco very
H ur
E mp
s ÃŃ
def end
c et
as se
ok es
rem ote
Ø ³
ar ts
is co
auc oup
Mex ico
ch osen
em at
od ing
stand ing
As soci
um my
IL L
cam eras
åĨ į
A rab
S um
te go
crim inal
if orm
st ack
d ust
J ose
he m
incre ases
ost a
d ying
R iver
mo ist
a res
disci pl
ra it
H as
y gen
ë ´
langu ages
H en
Dis ney
int s
al go
food s
set up
effect ively
where ver
æľ Ģ
h its
princi ple
tast es
§ Ī
treat ed
res olution
priv ile
ë °
ter rit
í ĥ
b other
Ch air
mus cle
s ale
dec ent
c oup
S qu
co ast
Fr anc
bath room
shop ping
St ay
gr ade
ba ÅŁ
br ill
j our
åĽ ł
w ie
ic ate
N orm
à ¥
main ly
trem end
it i
M usic
Febru ary
cont rast
å¯ ¹
est ing
Î ´
ing ing
Ù Ĩ
ss en
she ll
A p
West ern
W ord
PL AY
A qu
launch ed
M em
P our
z we
Some one
ing e
Pro b
m ble
ur u
r hy
g ig
engage ment
Ã¼ ÅŁ
ãĤ ĩ
offer ing
wh el
w est
R oy
return ed
sil ver
s ke
t i
ic ation
ann oy
deep ly
nat Ã¼rlich
EL L
C ath
r ail
pray er
c ol
g la
W ater
Ñı ÑĤÑĮ
Ã´ t
ag ers
h ug
do ctors
an cing
z ing
had n
l ui
at Ã©
ê·¸ë ¦¬ê³ł
ê¹Į ì§Ģ
incor por
D i
z il
any a
ª ħ
Â »
3 5
be er
be aucoup
e ars
og en
Qu est
ed a
æľ ¬
Sat urday
st on
b les
th us
ëĦ ¤
à¹ Ħ
th erm
divers ity
so y
az u
im p
tele vision
éģ İ
w ur
ed ges
less ons
ãģĹ ãģ¦
ament o
explain ed
Ï İ
The y
surpr ising
D rag
éĿ ¢
C le
n am
hard ware
th umbs
Îº Î±Î¹
Ã ¥
é Ļ
×ķ× ¨
ê·¸ëŀĺ ìĦľ
Bud d
ther n
interest s
develop ers
h itting
opp osed
heart s
And roid
H and
repres ents
g lich
íĬ ¸
dom in
ä¸Ģ ä¸ĭ
zo om
ktÃ³ re
adult s
order ed
pick ing
H ong
film ing
æĢ Ŀ
se ed
A T
calcul ate
ic it
rem aining
se gu
Ã »
ìĺ¤ ëĬĺ
arri ve
con gr
grand e
health care
est e
aware ness
squ ared
xt ure
Be ing
sold iers
rev olution
tra ined
end en
è °
dan cing
install ed
v eter
men os
Br other
important ly
all ed
ia ÅĤ
ab led
Sy stem
V ol
e ld
emot ion
ic an
B ank
ik es
v log
pu ede
ìĺ ¤
se vere
% ,
clean ing
z Äħ
Ĺ Ĳ
Th rough
" ?
figure d
Ñ ĸ
Off ice
r aw
destroy ed
ent a
ag gress
ëª ¨ë
Ã¤ Ã¤
A R
correct ly
åī į
st ir
ext ract
veh icles
éĸ ĭ
parall el
j u
d are
M ot
on o
being s
exc use
al pha
ask s
po cket
... ?
k ita
Ã¼ m
appear ance
ord an
ins ert
Ľ i
tem po
fac ility
å Ĵ
S cience
ur os
V an
t ension
íķ ł
del ivery
st im
sur vey
æ ł
we iter
ÃŁ en
ä¸Ģ åĢĭ
pro ceed
impress ive
V oc
ious ly
h ale
o ch
gl ue
ph et
c ont
box es
control s
scen ario
t rop
process ing
ÑĤ Ð¾Ð»ÑĮÐºÐ¾
Ch ic
201 3
mÃ¼ ssen
J ag
s Äħ
per ce
F ore
conf used
accompl ish
cas a
c lock
influ en
R O
ic ian
strateg ies
it u
person ality
bard zo
accept ed
st om
ie v
H ist
A us
ë° Ķë
AT OR
æĦ ı
o ir
mag az
expl an
cor n
il s
circ uit
g ay
h op
ãĤ ĥ
equ ival
dies er
er ves
com es
k lich
ëķ Įë
ab et
ex ha
man ner
Ã¤ l
conf irm
enter ed
empl o
F ar
o Ã¹
ess ions
n urs
ent Ã£o
ab andon
l ife
w is
ìĸ ´
Th ere
R am
ast e
att rib
mes mo
é «
ens es
c rop
Unt il
ste in
o ven
sus pect
h et
pu is
car ried
Ã© g
De v
em s
re ens
ber ry
tem pl
B it
vari ables
over whel
init ially
ìķ ĺ
ot hing
ÐµÑĤ ÑĮ
H ill
dep art
my st
az z
flu id
clin ical
Flor ida
T ak
anx iety
b ro
circumst ances
Ù ĥ
exist ence
t ong
201 2
Secret ary
sp icy
[ (
With out
fact s
t ons
A pp
St and
li es
A D
w in
ÏĦ Îµ
I P
S up
ŀ ĳ
p ie
P ot
èµ ·
× ŀ
ic as
I r
push ed
un cle
princi ples
Intern ational
say a
ê³ ł
r ib
past e
war ning
mus ical
agre ed
Ð¾ÑĢ Ð¼
gar lic
ox ygen
A l
ë§ ŀ
el ines
LAU SE
ç¾ İ
gy pt
ck er
t u
sh el
stay ed
l apt
Mart in
inv ited
conf ir
emb arrass
ac iones
C amp
hold s
ax y
d ive
uck les
bo ost
w Ã¼r
dÃ© c
offic ers
olog ist
× ŀ×
se eds
bu ff
upd ates
ãĤ ı
d ed
coun cil
Prob ably
redu ced
auth ent
expl os
p ass
H it
j ud
N av
om i
comm ission
g ym
Ð Ł
p on
inter face
struct ures
y ok
me u
ì§Ģ ë§Į
W ie
chann els
Ä± na
philos op
ke it
bit s
ent es
f rag
K ind
do ch
s ne
ind ing
Jew ish
Ð¾ÑĢ Ð¾ÑĪ
f ue
æĸ ¹
m Ä±
ke ine
loc ations
çĶ ¨
met er
be ef
ãģ ĺ
man ip
son o
zz le
ç ¶
p es
hor rible
fact ory
fif th
cook ed
mo od
veloc ity
ob lig
connect ions
ÄŁ im
dom ain
apply ing
rid ic
c el
child hood
T est
rat ulations
Vir gin
C EO
algorith m
inter action
ag a
kid ding
tom ato
continu ing
l ad
st ream
No body
th umb
O N
r ush
stri ke
ev olution
ich e
ê·¸ëŁ °
Ø§ Øª
a k
wind ows
ex cess
ãģª ãģĦ
conc lud
epis odes
strugg ling
D at
Ŀ ¼ë
æŀ ľ
veget ables
y stem
Ãªn cia
r ick
reven ue
H aw
l an
in iz
su p
© ´ìĦľ
moment o
ist o
ãģ ¤
i ors
introdu ction
ir ty
de ck
re al
Mar io
lo ving
à¸ Ķ
support s
Ð¸Ñĩ ÐµÑģ
inc ident
ut ch
u v
ÐµÑĢ ÑĮ
comb ined
L in
2 3
or ation
nt e
s or
dir ty
if er
AP I
collabor ation
i able
prior ity
A le
Pr in
st ood
rec ru
M ur
es is
lock ed
P ero
Har ry
t udo
T en
force ment
ol i
ìĿ ¸
supp l
croch et
phen omen
l os
ath an
Su pp
em br
Ze it
g end
ª ½
ny ch
don t
cab in
account s
E aster
×ķ× ľ
ãĥ «
fac ilities
be it
link ed
G er
program ming
ot ic
dr ama
í ģ
instruct ions
important e
w aves
C K
ê²ł ìĬµëĭĪëĭ¤
M ir
t id
H ot
arr ange
t ack
Ñ ī
vert ical
he el
C ut
nar row
A ri
kn ee
Bra zil
F ive
post ed
U D
claim s
In s
O K
ãģĦ ãģĨ
u in
Inst itute
i ar
se lection
leg end
un iform
stud ied
å¤ ª
g ers
d ow
ag ent
A uf
è¦ º
j og
air craft
ul s
seg ment
ap olog
platform s
my th
sens itive
dam it
C apt
architect ure
W il
in her
ca p
æ¬ ¡
bur ning
P ublic
beh alf
therap y
ubs cribe
invol ve
exp osed
i ÅŁ
ä» ¬
Ãª tre
to il
s ink
å ĥ
I I
ag encies
au f
ãĥ» ãĥ»
pro c
ok ed
st ores
p ower
Th ings
access ible
te Å¼
E duc
speak ers
Sar ah
Ķ Ķ
di verse
ìŀ ĸ
U lt
Ãł y
Chic ago
S he
ath y
en able
trad ing
mus cles
æ Ľ
U r
Sc ot
phr ase
EN T
p ack
determ ined
Ã¼ nd
neg oti
vid Ã©
S us
r iding
h men
De f
ãĤ ¹
W all
ig an
se mpre
Ñĸ Ð´
foot age
f ond
W ay
Ã¤ m
Ob ama
Serv ice
D ark
ê· ¼ë
C at
é Į
et was
breat hing
á» ĥ
åħ ¶
We b
ä¹ ĭ
èµ °
fo is
light ing
D A
ob st
le ur
çı ¾
E gypt
Ar my
ic ide
Ð°ÑĤ Ð¸
ëĭ ¤ë
ap artment
W ed
network s
b att
æ ¸
nic ely
à¸ ´
ì ¶
os it
reve aled
t ied
á» ģ
anim ation
ro les
vers ions
tas ks
¯ ¼
res c
s he
lo ose
c á»
co isa
al ert
S AM
tra baj
ir us
T H
Æ ¡
og ether
T ai
fig ures
cre ep
investig ation
recommend ed
A k
res idents
mind s
u ing
å ±
ow ing
no g
r az
Ø§ Ø±
qu ot
app laud
cover age
v ol
Re c
Ä Ľ
Ð²Ñģ Ñĳ
expect ing
oper ate
con ver
S uch
Pr ime
pur ple
201 0
ex em
compar ison
lands cape
ne ither
ë ħ
stom ach
cas o
Ã¢ n
percent age
w ich
it an
k l
exp ans
occ asion
re ts
ig ning
kil omet
è· Ł
g ust
c ze
ur ban
ag ric
assist ance
sur f
im eter
pet it
assess ment
man ual
impro ved
b st
pil ot
M ars
vie le
Cong ratulations
arg ue
wir klich
click ing
R IS
lo go
out come
Cent ral
g aming
cons erv
ult imate
V e
W al
ar o
æĦ Ł
st ar
consum er
travel ing
im er
princip al
sa ke
Ñĸ Ð²
m ouse
ar ios
rel ation
èĩ ª
mor al
åķ ¦
the ta
w y
e ig
gold en
am pl
st r
r ors
where as
iz ar
administ r
nÃ³ s
P ret
Ac ad
ang ing
b age
ur i
he aling
tip o
mar ry
est ate
u u
B est
suff er
19 4
bac ter
O m
è ¶
old u
phys ically
Lou is
et ime
c ase
ìł ľ
v an
ass ets
ë ģ
prom ote
congr at
ues day
d uty
Vide o
John son
kt ion
Voc Ãª
ãĢ ĭ
a i
ann ual
itt e
sl ides
an c
¹ Ħ
te en
carry ing
ly mp
ed ing
f ro
ad mit
official s
pt ions
g al
he ute
vo ices
gu ests
ann er
ãĢ Ĭ
is her
Rich ard
rough ly
l Ä±
vict ory
alg un
Mr s
ÅĽ cie
U k
e y
W ars
br anch
ast y
Pr ince
recogn ized
much o
Le ave
con nect
spe ll
touch ed
ag enda
è ¾
ar ia
K ong
og a
param eters
ëĭ¤ ë
reg ul
C on
ed itor
D ist
un known
pun ish
expect ations
cry pt
div ide
ak en
M ess
hy per
Pro ject
ik i
ag ora
ab use
caus ing
conv in
concent ration
break s
ur er
conc rete
form al
bet a
it ors
Ch amp
head ing
B lo
Sen ate
advent ure
os o
op ens
PLAY ING
ure n
ik t
Ð»Ñİ Ð±
Fo llow
B iden
el n
S ky
et ing
E xt
ìĻ ľ
sh r
ell a
D iv
transform ation
house hold
et ry
è ¡
Des p
cour age
park ing
ett Ã¤
c al
ly n
la id
tri es
ir ts
ig a
rec all
if ier
Ïģ Î±
butt ons
re aching
ê·¼ë į°
sp ark
So cial
can al
cr iter
ktÃ³ ry
ten emos
Ĥ ¬
t ube
ac les
deÄŁ il
st amp
inf l
a hora
tra il
mi xture
R oll
rout ine
count y
enjoy ing
purp oses
S anta
bre ast
Ã¤ ng
å Į
ne m
ic os
detail ed
re verse
Re ady
dist ract
Al ors
des erve
obs erv
log ic
P y
¥ ´
ÙĬ ÙĨ
sk a
t act
hol iday
b ump
de ix
wor ship
C l
su ck
Ñģ ÐµÐ±
app lause
p atch
áº Ń
lad ies
broad cast
ill eg
narr ative
oss a
ARR ATOR
s ang
move ments
partners hip
organ ized
n ode
est yle
M eg
indust rial
go l
b oring
åĬ ł
ãģ Ķ
cut s
rec on
as a
ìļ ´
g ie
Ĩ µ
ed iting
r ont
follow s
Ital ian
ê°Ļ ìĿĢ
partic les
Bo ard
×Ļ× ª
j un
ron ic
×ķ× ĵ
c ion
itt y
T uesday
um es
Pr ot
pesso as
sk ip
object ive
ÃŃ as
des k
Look s
und en
prim arily
iment o
report ing
ha ce
check ed
é ĺ
ë³ ´ë
smell s
act ors
As ia
il Ãł
rece iving
tax es
gr ace
compet itive
div ision
whe els
komm t
tremend ous
es pe
... )
ìŀ ħ
Ã¤ ll
un us
H olly
guid ance
c ub
intell ect
Ð±Ñĭ Ð»
regard less
St an
æ² ¡
conc lusion
aca ÄŁ
B at
manif est
Ch ief
sh ame
out comes
ma il
Î¹ Îº
et z
prep aring
2 7
à® ³
ë¹ Ħ
t iss
conscious ness
m elt
uch t
ìĽ Į
vot re
mod ule
ow y
mon ster
ë Ĩ
electron ic
cent re
stop s
t ou
ë Ń
l amb
consequ ences
stra w
im per
ext end
ãģ£ ãģŁ
answer ed
M ah
LAU RA
if ting
u ate
åħ Ī
US B
ãĤ «
Ge org
ç »
Ã¬ nh
dra wn
li ps
b ir
may or
im i
enc ore
åĲ ĥ
fort able
urs day
bl ame
show er
contain er
st ers
ud es
T ay
à¸ ¥
ìĺ Ī
v om
b ass
iss a
dim ension
execut ive
R om
ê²Į ìļĶ
Do ctor
deliver ed
c er
extra ord
der iv
ill ness
gun s
201 1
air port
Ð ķ
att itude
gr at
W r
N ARRATOR
ì ļĶ
re new
cos a
contro lled
omm y
ond s
es e
Ã¤ ch
v end
d am
ar gu
acc eler
n ail
ien e
ìĥ Ŀ
enc ont
ese arch
é ¡
good s
f ishing
N AS
ect ion
tem ple
lich e
key board
çŃ ī
des de
educ ational
N ight
breat he
lich en
th m
i Ã¨re
à¸ ļ
lar Ä±
al i
comp os
sens or
ë¶ Ģë
news p
B und
perform ing
dr um
p ork
en ger
r am
çĦ¶ å¾Į
Ð¸ÑĢ Ð¾Ð²
ph ones
fac il
track s
ont e
organ ic
dial ogue
H aving
P ost
pay ment
ar ray
int ended
Ãº s
review s
land s
king dom
st ages
mount ains
d un
dec ir
bank s
throw ing
ëª »
an ger
Ñģ ÐµÐ¹ÑĩÐ°Ñģ
dist ur
human ity
el es
should ers
fan cy
brill iant
insp iration
å¿ «
l id
U L
m Ã¥
ind i
è Ī
ag ine
u ber
quest o
K now
t ang
bare ly
S E
mar gin
re i
Ð°ÑĤ ÐµÐ»ÑĮ
cont r
v Ãł
leg it
Ð ĺ
k ins
As h
adv is
Gree k
sh ake
id ades
Ð°Ñģ ÑĮ
conv ention
cont est
M S
Ye ar
represent ation
ind en
end ar
pr ost
H uman
C y
ang ed
the ore
at z
íķĺ ê³ł
el s
R esearch
bene fic
d ensity
im di
research ers
ê±°ë ĵł
igh s
d an
d ice
ma ar
sub mit
d umb
a way
ext ension
cr ush
cover ing
ed i
b orn
in ations
Ñģ Ð´ÐµÐ»
Other wise
ist ant
t anto
perform ed
al o
Found ation
prot ocol
Z o
m ay
ha ck
bud dy
m ade
ad s
fasc inating
equival ent
g el
Ñĩ ÐµÐ»Ð¾Ð²
prop osed
not re
coun sel
È Ļ
electric ity
to x
ÅĤ ad
difficult y
ł ×Ļ
nes day
Ð¸Ñģ ÑĮ
all eg
qu it
Her r
estÃ¡ n
girl friend
t eng
ific ial
can cel
frequ ently
å¯ ¦
clos ing
dec ade
represent ed
Can ad
ÐºÐ¾ÑĤÐ¾ÑĢ ÑĭÐµ
est amos
Th ursday
G a
L ive
le m
b ble
S ON
200 8
d ich
Aw esome
concept s
PE AK
liter ature
O lymp
v it
En ter
ord ers
ick ing
nie j
e uch
Th ough
bag s
lim its
st ake
ĥ ¥
o c
V is
n ue
con ce
dis ag
ç ¨
ant icip
ł Ī
s l
vot ing
exp osure
Commun ity
Just ice
or ney
szy st
fr ied
W in
Hope fully
es z
m onde
comb ine
g ment
recommend ations
pregn ant
ra f
l u
èĢ ģ
ä»Ģ ä¹Ī
do or
ue go
improve ment
tr im
e igen
approxim ately
aw a
Ñģ Ð¾Ð±
cor on
on going
h es
inj ury
fr ank
kad ar
ren cy
Col or
G ru
d ip
te ars
g t
os c
W oo
è¦ ĭ
den n
P et
over come
ëĤ´ ê°Ģ
M ove
lic ense
repe ated
à¯ ĩ
categ ories
nood les
flo od
M ass
I h
ch ances
Ĳ ĺ
don de
and ere
effic iency
mod er
ro at
ìĿ´ ê²Į
ill er
om ega
produ cing
particip ants
if ice
fort un
iet nam
ac ak
K o
mi ÅŁ
j ail
J ones
ÅĽ my
De uts
brief ly
T al
Per haps
R ub
ëĭ¤ ëĬĶ
r Ã©
vocÃª s
Char les
ÐµÑĤ Ðµ
ri ers
he al
ant ee
democr acy
lo an
che f
Ñı Ð¼
uncom fortable
et ern
app ing
rep air
r ot
T ar
co vers
om ing
E th
Î Ń
Ñĩ Ð½Ð¾
after wards
d aha
kn ees
ord inary
g as
tick et
ìłĢ ëĬĶ
ìŀĪ ìĬµëĭĪëĭ¤
ch te
M r
s ist
h ui
ê· ¸ë
ìĹ ¬
v ary
mem or
contro ller
bÄĻd zie
fl ow
to wer
ç Ĳ
sc ar
æĥ ħ
P en
pa ÃŃs
ener g
sw ord
pap ers
Wed nesday
For ce
extraord inary
L ake
ê° Ģë
Be aut
reason able
contrib ute
ple ased
upd ated
pi Ã¹
el o
signific antly
gener ations
protect ed
åĵ Ī
h iding
I ll
neut ral
] ,
ÏĦ Î¿
tong ue
Th ank
pay s
Î¯ Î½
ier a
j eg
S ubscribe
the ater
strong ly
Ð¿ÑĢ Ð°Ð²
uck y
k ward
oppon ent
ho ly
fill ing
: ]
h ij
Ð ľ
b iss
bl end
im plic
lle icht
ÙĬ Ø©
as ant
ert e
S ame
inter ior
S e
po co
w ins
åĸ Ķ
Î ³
dist inct
As ian
mole c
Jack son
phys ics
im al
pe ak
ar ian
ep s
ne at
ur ning
syn th
reve al
n is
at iv
L as
p y
Maj esty
V alley
e ze
b et
é ļ
è Ĳ
philosop hy
match es
Ŀ i
ju Å¼
des per
Educ ation
sp ots
reg ions
A r
N am
e en
di agram
re ly
t ens
d ating
H or
acknow ledge
Pret ty
vo ir
favour ite
mo Å¼
f ert
ë ıĦ
find s
It aly
comp ass
ë ³
li ament
not ion
in ject
wis dom
Mo on
Bus iness
r ics
Y out
forg ive
fin ance
il o
Ø £
ah l
dem o
clim b
exp ort
å ł
success fully
F er
pect ed
d em
ret ire
lapt op
sp ir
Associ ation
S el
employ ee
m olt
R L
Ð ¯
cont ra
u g
B all
J ava
Ã©r ie
proced ure
bel t
ÑįÑĤ Ð¾Ð³Ð¾
ur d
comp reh
develop er
ÑįÑĤ Ð¾Ð¼
å ĺ
c r
ë ĵ
sp oken
ren ce
term in
aggress ive
biss chen
hast a
Comm ission
Y u
prom ised
equ ity
ik o
ver ty
repl aced
Hel p
Mid dle
me in
Coun cill
or o
B ern
be z
anal yt
ang en
ìĭ ¶
G lo
qu ad
speak s
ìĺĪ ìļĶ
ìĹ¬ë Ł¬ë
f ree
r ich
D ies
¥ ¸
dep ression
ret ail
Ħë ĵ¤
V ous
Lat in
á ¹
ì¢ĭ ìķĦ
tor t
comput ers
search ing
t ub
ate ll
m erc
glass es
p erson
dish es
guar antee
me g
s m
W alk
ìľ¼ë ©´
fold er
M it
tim ing
ab st
L og
ãĤ ¯
appro ved
US A
w ise
ess ed
dou b
gener ated
stay s
explan ation
po ison
at re
ins ane
refer red
ai res
T RA
inn oc
A h
m ant
h us
o ice
discuss ing
conven ient
_ _
avo ir
shap es
gr ay
dent ro
m acht
19 5
Ù ı
add s
ut ing
cap abilities
t une
C ause
ard e
av irus
R E
tun ed
le af
ter ior
Capt ain
Ø ¬
cho osing
gg ing
v iet
reg ret
2 6
ond ern
bon us
A s
tor n
H ier
E U
ris ks
am a
Y et
character istics
Sen ator
V amos
corpor ate
g han
cent ers
n it
unus ual
W ild
Sim ilar
tod as
åģ ļ
horiz ont
m el
str ict
c ual
wr it
ext ended
íķĺ ëĬĶ
rel ief
on ion
bab ies
dif er
integr ated
Ã¼z ik
ep ing
-- --
strateg ic
fin itely
eig entlich
W ho
åľ °
T ri
point ed
ð Ŀ
n ament
pr ide
Republic an
sam ples
dom estic
ve z
web inar
Ø§ Ùħ
suggest ed
me ine
pu ed
ore n
r ir
heav ily
inst ruction
micro phone
ig ual
I ra
vulner able
Virgin ia
continu ous
po verty
ä¸ ī
rel ate
car a
Go ing
reg ional
F uck
to w
M useum
r ants
la im
champ ion
t le
ÃŃ n
en cia
dies em
D ig
invest ing
integr ation
à¸ «
ens us
Ar ch
pen cil
Ð°Ð»ÑĮ Ð½Ð¾
iss en
K a
ro cks
r ating
ref uge
a pr
et ed
assist ant
meaning ful
perman ent
w szyst
w ound
At l
l ake
F ort
è¬Ŀ è¬Ŀ
redu ction
s our
e cos
ha z
ste al
my ster
Ñį ÑĤÐ¸
V ietnam
ant es
connect ing
éĸ ĵ
b Ã¶yle
C ast
L e
c ul
gen re
ë§ Ĳ
compl ain
hur ry
art e
g reg
monitor ing
des ert
Ñģ Ð¾Ð²
el ing
Sup reme
gib i
lar g
n ations
need le
æ µ
as leep
com un
Jew s
achie ved
ex it
dise ases
l ines
ãģĭ ãĤī
ri ends
re ct
sc an
hur ts
z ÄĻ
ãĤ ·
ult ural
á» ĵ
in ent
p ues
§ Ģ
ag ger
ad a
W omen
è£ ¡
è «
occur red
se ats
èĢ Į
emp ower
un u
ell ing
ens ional
con sole
as hing
ein mal
ëı ¼
s essions
Ù Ĳ
ridic ulous
ÃŃ an
Hen ry
H ol
collect ed
discuss ions
D e
dis ability
subscri bers
ir gend
direct ions
manufact uring
R od
ìĸ ĺ
à¸ Ĺ
æĺ İ
criter ia
mo ld
è© ±
ent ering
ri j
is en
P ara
ie ve
j ou
c ats
ad ays
v ation
ast ron
it als
B rand
K an
and eren
and e
Ñı Ð·
to ler
ÅĤ em
pr Ã©
age ment
u ct
ch Ã©
E ner
aj Äħ
st a
toil et
experien cing
sl ip
sand wich
Us ing
spect rum
R os
ap se
J ay
æ³ ķ
E x
recogn ition
Did n
ud a
aj e
est ly
fem in
it ure
ÑĢ Ð°ÑĤ
now here
ä½ į
áº §
w ing
sa v
Sec urity
r ural
ay er
ac cus
m m
Jose ph
sc reens
b orrow
sw ing
touch ing
th is
int endo
é ĥ
Ð ł
Scot land
V en
except ion
near by
brows er
ang ers
S in
ä½Ĩ æĺ¯
osp el
wur de
dr unk
ãĥ ī
ìĬ ¤í
L ie
oc o
Le ague
ign ore
land ing
T ag
2 8
dra ft
a er
ê·¸ë ĥ¥
p ense
bed room
ì§Ģ ê³ł
igen ous
de als
ell o
äº Į
pos it
ê »
vis ited
if ies
pre mi
can t
R ick
rais ing
perm ission
pub l
un ci
b end
champ ions
d ie
aw ful
jump ing
ll eg
sustain able
T ot
cand y
åĢ Ļ
satisf ied
pi pe
st one
moment um
al ors
return s
am men
ç ®
Ñĭ Ð¼
a wn
ott ed
woll en
ict ed
candid ates
L ady
y ield
mainten ance
ff ect
expans ion
L ED
dark ness
out fit
ìķ Ī
ru ption
ãģĦ ãģ¾ãģĻ
eng aging
ins ight
Al ways
ra k
p ix
è¦º å¾Ĺ
quant ity
in k
King dom
c ort
å¸ ¸
govern ments
prot est
po on
ÑĤ Ð¾Ð³Ð¾
å® ĥ
uch en
qu ality
Por que
Cl ub
r it
art icles
ig ible
dis aster
Ùĩ Ø§
ë ¥¼
are t
un able
Ã ®
× ł
annoy ing
K ir
ÐµÑĢ Ð¶
enn is
unc ertain
3 6
Ã¶ s
ecos ystem
z ed
j Ãł
s un
ìĸ´ì Ħľ
Å¼e by
ma ps
ë Ĥĺ
åħ ¨
tr ash
enorm ous
st ated
brand s
you t
Mat th
transport ation
legisl ation
prov iders
Ø Ń
magaz ine
Desp ite
pass es
æĪ Ĳ
ad an
farm ers
è° ¢
confir med
it os
road s
design s
So viet
pract icing
ë¶ Ģ
Se a
ãĥ ©
Ð¿ÑĢ Ð¾Ð´
ch ill
lem on
ìĹĲ ëĬĶ
flex ible
Exc use
territ ory
åķ ı
ãģ ¿
l ux
lif etime
dist ingu
T imes
gr oss
en z
sc roll
m Ä±ÅŁ
ci p
£ ¼
pub lish
e ben
ed ition
L E
char ging
ut ation
yr ics
id as
Î ¿
T on
çĽ ®
who ever
F ox
æī ĭ
ê±°ëĵł ìļĶ
f ought
dr ill
Af ghan
~ !
To o
second ary
He ad
in nen
y arn
engine er
i Äħ
w ings
ëķĮë ¬¸
tra uma
rep rodu
ch ip
passion ate
aw kward
í Ĭ
Bit coin
kh Ã´ng
re ction
Us ually
implement ation
game play
myst ery
a Ã±os
and y
priv acy
ac o
ãĤ ģ
d ump
P ay
di pl
f urn
sh ips
L A
Ñħ Ð¾ÑĢÐ¾ÑĪ
e c
drop s
ch l
3 2
obs erve
De velop
M Ã¼zik
ann el
owa Äĩ
fac ed
Ã¡ l
victim s
g ifts
bo ot
ÃŁ e
ro d
200 9
Ã¶r t
univers al
n ouve
boy friend
cet era
ÑģÑĤ Ð°
' S
n ive
cru cial
sur ve
co in
s ondern
sh ade
l ugar
sure ly
impro ving
åĽł çĤº
× ĳ
ìĸ ´ì
en forcement
ib l
li v
ler i
me jor
Carol ina
v as
comp rom
d irt
up grade
Be ll
restaur ants
tra p
te as
b lic
s an
o w
u est
propos al
R et
fr ont
pass age
surround ing
up coming
hor ror
cl othing
d il
r ome
Ro ad
ch ain
Ð±Ñĭ ÑĤÑĮ
O ffic
ins an
decre ase
Ñħ Ð¾ÑĤ
bu ild
Drag on
å Ĥ
invest ors
ant i
sacr ifice
tro ops
B ad
pass word
const ra
à¸ ķ
Ãĩ a
ad ow
th rough
ÑĨ Ð°
C an
candid ate
ant ib
tast y
ÙĪ ÙĨ
In f
B ang
iÃŁ t
in ity
f ather
contro vers
P ak
il ty
light er
Gu ard
initi ative
al ous
not ification
Med ic
Comm ittee
W ood
mus h
ul um
è ²
ah ah
su fficient
sing er
AL I
Ã¤t t
L ar
cul es
iem po
une x
integr al
transm ission
ic i
Ñĥ Ñħ
g ic
N intendo
C op
Tr ust
en as
ab ilities
ch ips
p at
approach es
th or
s isters
dri vers
all a
rub ber
n Ã¥
AC K
disappe ar
comp ens
v ibr
ç¬ ĳ
G O
s izes
track ing
ìĦ ¸
impact s
ib il
f ish
B R
ar row
larg ely
ann y
law yer
æĢİ éº¼
j ours
Ú º
v ia
de lla
math emat
M ine
K oll
C ross
gr ac
invol ves
del ight
Holly wood
immedi ate
on ic
l ado
bull et
un lock
disc ount
ris ing
p ress
sh orter
ten er
ge on
man aging
C hr
Wh en
ach en
H un
of t
ier ung
st abil
Con nect
dow nt
Î½ Î±
vidÃ© o
Fam ily
amount s
cl ass
v ib
A v
ar se
gentle men
see king
regular ly
æ ı
J ahr
F ood
Pro blem
art ificial
S ix
imp ressed
to oth
K h
íķ ´
ëı Ļ
to da
port fol
orge ous
d ates
Ð¾Ð»ÑĮ Ð·
ÐµÑĩ Ð½Ð¾
config uration
require ment
bell y
pain ful
demonst rate
g leich
vis iting
Ù ĳ
am end
F ur
æ¯ Ķ
v ital
á» ĭ
O u
leg acy
ust ing
accom mod
au en
lif estyle
Ã¤ Ã¤n
art en
min ha
r Ã³
ëª ¨
form ation
tra iler
per or
u d
z u
c ave
Councill or
thr own
trick s
Acad emy
row d
¡ Ŀ
ìł Ģ
Im agine
inform ed
ro ph
l ig
sk ull
ab eth
function al
ere k
O n
é ¦
anc est
saf ely
H T
d av
dri ves
A meric
t ire
sa is
Ã¡ ri
av ors
correspond ing
ch est
bacter ia
infect ion
us al
basket ball
suppl ies
expert ise
ł ¥
f a
t iempo
W ant
s illy
u pp
elect ed
f ired
Ø ¯
univers ities
all e
jack et
tra v
l s
defe at
co gn
equ ations
uk i
S her
th irty
stream ing
Pro du
ne j
design er
ëĬĲë Ĥ
paint ed
ra ine
m ail
v ess
rhy thm
les h
9 9
a inda
ch ied
Ã©t ait
affect s
é £
F ind
Ã© l
potato es
p ag
art s
N ach
3 3
H ard
Ira q
opin ions
w ith
erm an
è Ń
¬ ¼
st ability
capt ured
bu cks
mas ks
compet e
forgot ten
Ð»Ñİ Ñĩ
se qu
ill ion
graph ics
h ub
ìĹ °
em por
cr own
w ider
occ urs
æ ģ
B attle
ãģª ãĤĵ
d ual
ath ers
à¹ ģ
sett le
do is
ad ores
Ã ³
Georg ia
R og
div or
S ong
Spe cial
pret end
bes ides
N az
2 9
swe at
H u
Bu ild
h orm
C ard
recommend ation
c alled
st ick
Pol ice
consum ers
gro cer
st un
Ð £
D ata
subst ant
ire ct
à ²
Ar m
sem ester
Br ad
our s
ÐºÐ¾ÑĤÐ¾ÑĢ ÑĭÐ¹
§ a
gr ams
exerc ises
7 5
swe ar
inc ent
Ïģ Î¿
illeg al
ä½ ķ
Dam n
n Ãº
ne ces
cu z
ic on
h ors
Com o
ä½ ľ
ëĳ Ĳ
over se
har vest
th rew
Ð¿Ð¾ÑĤ Ð¾Ð¼Ñĥ
×Ļ× Ķ
ot ro
sc ope
gl ory
Mich igan
assum ing
Ñĥ Ð´
m other
w aren
è¬ Ľ
K am
isp iel
tou jours
const itution
frank ly
ol en
ons cious
wÃ¼r de
th on
O F
und a
employ ment
Ñĳ ÑĤ
ãģ ģ
ste am
D I
profession als
engine ers
X ia
ç «
ìĺ ģ
D un
bit ch
F ord
ä¸į è¦ģ
se ction
v ice
L ater
ost on
Ñį ÑĤ
Az ure
pl ing
18 0
C reat
IS HA
bu eno
íĿ ¬
ru p
l ers
Y ang
H A
b at
Cath olic
acc ent
mix ing
ck ets
enh ance
Ã¼ hr
Ãª s
í ĸ
swim ming
cá» §a
El iz
f are
G ab
s atell
Any thing
ass et
sched ul
rad ical
zwe i
rel ated
separ ated
L ibr
g rip
à® ª
è¨ Ģ
O p
ìĨ Į
entr ance
N ie
Republic ans
at om
person as
Al i
Ã¤ hr
å¤ ĸ
dram atic
remind s
è Ļ
dÃ© jÃł
afford able
br an
ier o
c u
mo Å¼e
bl ast
rec y
f ire
D ude
R ome
g reet
H et
ci as
ëĭ ¹
less ly
prem ium
exper iments
at ar
Ã© ri
offic ially
fe e
à¹ ĩ
Ñĩ ÐµÐ¼
re a
to y
Tay lor
Mc C
ile y
B ak
al um
Un ter
mag ical
tra bal
vot es
it age
mechan ical
h n
ãģ¾ ãģĹãģŁ
ä»Ĭ å¤©
h int
author ities
NAS A
ivers ary
r ac
SPEAK ER
Ã¶ t
good bye
ch er
h u
ne ur
å® ļ
M ach
He ll
fest ival
ëħ Ħ
ut a
mush room
tat to
del ete
d iz
se vent
Qu ick
b aking
assemb ly
G o
D ream
L ad
éĿ ŀ
Ã¢ y
ag s
grav ity
em ploy
dies es
disco very
heb ben
ger ade
D R
techn ically
privile ge
E ver
Serv ices
ur an
consum ption
Re v
Sh all
ass er
¶Ģ íĦ°
rac ial
Yout ube
P ra
ce k
æ ´
ash a
ĳ ľ
ah n
IC K
drink s
car b
ãĤ ¿
M mm
electr ical
fr uits
Ã± a
De finitely
ë° Ľ
f ais
r ations
co e
ah u
F air
eat en
A u
Ñĥ Ð½
ul ating
ing ly
vacc ines
drag on
point ing
pel o
or ters
work out
N ope
Ù Ĥ
adopt ed
b ul
s ans
poss ibilities
z aman
sha res
cal endar
person a
se al
gen e
st ored
l yrics
instr uments
M A
Ģ ìĿ´
cloud s
h ot
áº ¯
ê°Ļ ìķĦìļĶ
Emp ire
b io
w ind
ie go
Eu rop
ed ge
back wards
ì§ Ģë
que en
Ã§ Ä±k
c ad
O d
ìĤ¬ëŀ Į
bu bble
Ã´ i
z es
react ions
jud gment
Democr ats
cos as
ash ed
ÅĽ nie
ê ´
exem ple
á» ¯
V ers
res il
m Ã¡
ÅĦ st
bel iev
V or
sch eme
ond a
pod emos
char ges
dest ination
K y
sil ence
em bed
n at
á» Ľi
AN T
gg ed
redu cing
ug ly
m im
c ord
ÑĤ Ð¾Ð¶Ðµ
L isa
Ã¶ n
Christ ians
umb les
olog ists
az a
t ends
C ook
ges agt
íķĺë Ĥĺ
T es
erem ony
MAR ISHA
en roll
ES S
implement ed
d ÃŃa
Ã ľ
p ist
D r
s abe
So ci
Ã¤ re
Franc isco
ìŀ ¥
creat ures
aw s
earn ed
che aper
d la
w arn
s che
bl ah
nut r
è ¼
g orgeous
Ang eles
gem acht
hom eless
ograph ic
Tai wan
S om
H ad
act ions
post s
out ra
Me an
k ar
br ack
Ð¸ÑĤÑĮ ÑģÑı
belie ves
su icide
equ ally
ca res
st em
M uch
produ cer
×ķ× Ĳ
protect ing
TRA VIS
interview s
al ien
As k
so le
C O
surv iv
sk etch
w ÅĤa
col oc
apolog ize
we ight
hero es
B oston
depend ent
motiv ation
fl ix
se am
dra in
od ed
gu ilty
grant ed
S av
Un cle
Hon estly
EL I
navig ate
bless ed
c ore
ear ning
sign als
dis k
ial s
ag es
æ ħ
partic le
Ñĩ ÐµÑĢ
can n
stat ements
ê³ł ìļĶ
ëķĮë¬¸ ìĹĲ
Ch o
pol ar
an Ã§
K enn
N i
F ight
or gan
é ķ
Ch a
ãĥ ª
s lic
cert ific
templ ate
Fed eral
consider ation
expl o
M ain
along side
d ressed
environ ments
prÃ³ xim
da ar
prom pt
purs ue
entertain ment
th roat
problem a
prov ider
× Ĺ
int e
m aking
tiss ue
U n
pre cious
Ar ts
ink ing
cor ners
trick y
in ch
l ijk
press ing
le vel
AN G
rad iation
ìĦ ł
conf ront
v et
represent ative
prop ag
cra p
De c
r amp
u Ã©s
cri ption
b ills
Matth ew
an ime
áº¥ t
low est
h as
sc reen
og rap
int on
J ah
èĢ ħ
it Ãł
k ay
rot ation
W ere
abe i
tri als
ight y
sp oon
h unt
c ling
dis m
Ð±Ð¾Ð»ÑĮ ÑĪ
ass ault
week ly
m ismo
gen etic
ul pt
Stud ent
real istic
authent ic
æī ĵ
arrest ed
guid elines
×ľ× Ĳ
Com ing
f Ã¼r
requ ests
ĥ Ĳ
analy ze
inter ess
O per
on om
d uck
with d
s er
Ï Į
Hist ory
yout ube
ãĤ į
sab er
w alk
f ont
over view
Ã¼ y
fro zen
f lesh
ÄŁ i
ìĻ Ģ
é ¢
ê¸ °ë
pr ose
oo oo
r ates
W S
autom atic
collect ing
Å ĳ
neighb ors
Ex pl
cir cul
co ver
stick s
e ller
w ww
d orm
Ex per
stat istics
email s
gra ve
im iz
u it
, '
las er
è ī
ÑĤ ÐµÐ¼
Ñĭ ÑĪ
Ñī Ñĳ
gen au
tien en
med itation
Or gan
est imate
ë¬ ´ì
l ets
n Ãły
mind set
res on
m Ã©s
numer ous
vie lleicht
Th ird
u ous
De ad
H N
rac ing
ag ents
U t
te ar
H P
surv ival
æĸ °
convin ced
reg ulations
E S
åĴ Į
3 00
en se
d ict
ah ÃŃ
åĭ ķ
te j
E lect
intellect ual
bi as
bur den
çĤ ¹
ìĸ´ëĸ »
so ph
portfol io
ub a
est os
T V
F or
as h
kom mer
collect ive
w rest
J etzt
W at
re ich
prim er
act ive
ick ed
hun ting
test im
compass ion
Ø ±
br ut
sal ad
sol ving
flo ating
ç ·
attract ive
per d
if fer
sc ulpt
hh h
We ek
ent hus
mer ch
å¥½ äºĨ
Î ¸
éĩ į
ch ains
Al most
tick ets
r in
C C
distrib uted
abet es
temper atures
g ained
flex ibility
ab road
un o
entreprene urs
Net work
Canad ian
pre v
s Ã¶
P oke
Tur key
çı¾ åľ¨
abst ract
sn ake
Am y
ëĬĲëĤ Į
bra ve
ìŀĪ ìĸ´ìļĶ
K al
200 7
Ã¡ rio
mark ed
gin es
all oc
ON G
scient ist
es ca
rac ism
× ĳ×
S ams
P enn
load s
Ã¼ ber
M e
ix Ã²
per Ã²
exp ressed
mo et
ret urning
n ia
exp on
P ro
lo yal
l amp
sh y
comp osition
L y
magn etic
prem ier
measure d
summ ary
attack ed
fin ishing
Ð Ĺ
ç ¥
s its
hyd rogen
ma i
Deuts ch
as Ä±
obt ain
v ie
so it
conse gu
e ase
ak in
F a
unt uk
c um
al Ä±m
Ãº blic
Roy al
K on
common ly
remo ving
j ur
il ib
an ch
Æ°á» £
An th
S Ã¥
inter rupt
st ere
O S
ony m
ter y
Mar ia
ê² ĥ
expl oring
transp arent
f ate
J ung
gr up
dark er
D oug
man e
æĶ ¾
áº¡ i
d ri
lo ok
Des ign
tut aj
horizont al
re on
ort e
Cor rect
Ste ven
i Äĩ
sie mpre
K ey
åĥ ı
G ames
na ar
shock ed
el ve
R ose
stop ping
oh l
M ix
suff ered
sig ma
weak ness
O w
à¸µ à¹Ī
à® ħ
ad ed
Net flix
an es
rem ained
ir y
r ip
ell t
sil ent
pro ven
tox ic
al umin
multi pl
al and
3 4
0 6
B ru
ìłķ ë§Ĳ
J ust
b oy
sho e
creat ure
Ð¾ÑĤ Ðº
æ ±
ess ence
remark able
nÃº mer
d rew
pu zzle
Libr ary
F u
ash es
k k
I st
¦ °
c eremony
à® İ
c ri
e qu
ãĤ ¢
pri ze
dim ensions
og ram
le ather
pop ulations
u um
ve gan
Ñı Ð´
cÃ³ mo
å Ħ
stri p
å £
vac ation
ħ ķ
me als
ili pp
ar am
ric ht
gra in
Sp ain
che ek
A ff
I ON
Br ing
3 8
iel en
ul u
Ð±Ð¾Ð»ÑĮ ÑĪÐµ
announce ment
ÑĤ ÑĥÑĤ
Pro phet
ard o
w oke
transl ation
N OT
d Ã¼ÅŁ
ÑĨ Ñĸ
ac er
L oc
per ception
N O
dies en
L ook
he art
av ed
bound ary
Ñĳ Ð¼
arg uments
elect ions
Ä± s
he ck
suit able
f iber
St ra
x y
H um
month ly
u per
gol f
l ately
G ard
R en
A st
F ant
Ð°Ñģ Ñģ
obs er
eas iest
į Ķë
webs ites
p ol
co con
à® ĩ
V eg
walk s
int ro
direct ed
An na
ëĵ¤ ìĸ´
Easter n
S aint
B ow
ro ast
U RL
jed en
ur as
aj a
se mi
rapid ly
target s
Cont rol
ref lection
creat ivity
ìĺ ¬ë
among st
feed ing
ë§Įë ĵ¤
Sm art
rel iable
vez es
× ¨
az ione
William s
a Ã§
sle e
tim eline
thor ough
á» į
O t
áº¡ n
imag ination
mechan ics
r ist
claim ed
ÏĦ Î·
Ãª te
Hur ry
iP ad
const ru
C la
Al s
ä¼ ļ
ut z
cult ures
ìĸ´ëĸ» ê²Į
belong s
y er
Does n
ge omet
b id
fo am
h ob
Brit ain
subst ance
ann iversary
ëĦ Ī
not ed
govern or
stock s
3 1
di ye
z el
multip ly
oper ator
Ħ¤ ìļĶ
wat ers
d Ã¤r
uns er
Eliz abeth
é« ĺ
increasing ly
G ro
en gines
ir s
tre asure
P C
in ction
ir i
acc um
vari ation
p om
tit les
F est
Ã³ s
eld er
ny m
r un
innov ative
nom bre
co inc
fr anch
ent onces
nicht s
exc lusive
Che ers
B i
u je
æŃ ¡
p ok
P rem
rock et
ELI PE
hosp itals
ri um
just e
quant um
respons es
ll y
end i
fr idge
i ate
l ong
qu em
death s
super ior
ck en
ìĿ´ì ĹĲ
kt op
gather ed
£ ¨
d azu
reci pes
bu zz
any time
ons ense
circ les
sol ved
ìĭ ł
coron avirus
Lu ke
bu bb
cont empor
r zy
J ane
screw s
hy brid
cas ual
sel bst
be ing
Ä Ĳ
Col umb
Ñħ Ð¾Ñĩ
bu cket
evalu ate
id ol
rep utation
ÙĪ Ø±
he cho
po em
subject s
pl ant
Be h
Spe aking
batter ies
follow ers
g ently
si xt
param eter
T our
ot te
J ahren
prepar ation
c op
ik ing
ë¬ ¸
åĲ Į
I de
ì¡° ê¸Ī
la ughter
mole cules
R est
obs erved
advert ising
ert o
mo ins
M IT
exc it
t um
ty l
invest ed
ph arm
unex pected
ph i
oty pe
we ise
ge Ã§
jour d
hors es
n Äħ
= "
f ib
cl ips
çķ ¶
å¦Ĥ æŀľ
reg ime
rot ate
arm or
ÐµÑĢ Ð°
åº ¦
O ch
r ichtig
Ã¼z el
ane ously
m ek
éĮ ¯
X iao
exist ed
w orth
ãģ£ ãģ¨
na ught
he iÃŁt
B al
res id
iv ot
om atic
h ired
grad ually
on ions
comp at
int im
j ew
contrib ution
I re
ac ji
sl ice
imm un
R us
gr ows
Similar ly
hard est
st ruck
measure ment
... ]
th ey
ìł Ģë
sne ak
appl ies
æ ĵ
out ro
innoc ent
m og
Sams ung
mer cy
hand ling
inter vention
id ays
g ot
cur ric
bound aries
conf using
Ŀ¼ ëĬĶ
æ ĩ
stitch es
ÃŃ vel
tun nel
it Ã¤
g ost
im y
m Ã©
cat al
Sim on
LI AM
m ic
ey el
is as
C PU
D ou
nÃ¤ ch
infin ity
Pe ace
minim al
listen ed
hal b
load ed
ste ady
Bes ides
Ãª m
l ap
co op
friends hip
w orld
tyl ko
La ura
surround ed
E vent
ch ap
W onder
bre ak
dro ve
broad er
ch i
west ern
intellig ent
pers ist
ãģĵ ãģ¨
histor ic
fr Ã¥
cks Ã¥
hand y
sy mp
nut ri
b ur
Le on
sist ema
ext ensive
Ñĥ Ð²
í ı
night s
cÃ¡ c
count ing
M ust
all ow
ÐµÑģ Ñģ
M om
bar rel
ãĥ ŀ
AR D
install ation
in sect
ëħ ¸ë
uj Äħ
Äĳ i
pack ed
N ow
Y ay
r ons
ach es
sty les
apr Ã¨s
ok u
V ice
Ä±n Ä±z
com m
assign ed
interact ions
ac ab
F ELIPE
resc ue
indust ries
And y
pra ise
fl ame
sn ack
ç ģ
sw o
en ne
past a
dev il
F el
hat te
coll eg
e h
ì »
product ive
for ward
smart phone
inv is
b um
who a
o cksÃ¥
L ang
Sy ria
ses i
Î¯ Î±
appro val
4 8
ë ĸ
H arr
Ad minist
× ¤
De an
citiz en
sh ark
0 5
bo il
indic ate
å ¡
A re
lay out
ref r
Pac ific
AA AA
Austral ian
g ression
V oice
shel ter
T o
au pt
evalu ation
ap or
cur rency
ig os
ãģ °
o ct
ro yal
è ³
as il
Child ren
r ien
bar rier
ej emplo
e k
es p
kill er
integr ate
few er
dis abilities
tri angle
fe es
wid ely
em i
overwhel ming
z omb
ho od
A ye
Har vard
e v
ÏĦ Î¿Ïħ
cup s
A uch
199 0
we iÃŁ
cr unch
æ ¥
meas uring
st ations
short ly
sig ning
com edy
om o
suggest ions
sign ature
Ð¿ÑĢ Ð¸Ð²
dis order
as ka
world s
precis ely
n orm
ra v
C ivil
In ter
C ertain
inj ured
suggest s
Gold en
cy ber
Ø ´
tempor ary
co oper
vot ed
áº¥ y
x ual
pan els
hands ome
Ð¿ÑĢ Ð¾Ð²
per mit
ke in
bad ly
not ifications
iz a
Not ice
inc lusive
answer ing
u ld
now adays
3 7
stat ic
H op
aj o
ë§Ľ ìŀĪ
fif ty
F inal
sc ores
T ap
cy l
conv ince
any ways
od a
ìķ ¼
ser ves
Zo om
saving s
ul o
s outhern
ho je
se ja
represent ing
Īë įĺ
l ik
Some body
be ast
stick ing
ins ist
tal ented
explain ing
att orney
éĥ ¨
st airs
D og
c ig
shap ed
s ons
Ïģ Î¹
ut t
ì Ķ
par ad
ìĿ¸ë į°
J our
ann o
world wide
åĬ Ľ
particip ation
¦ Ħ
m Ã³w
burn ed
writ ers
all ah
F und
cle ver
Le ute
b in
be ating
f oot
ìĽ Ĳ
Stud io
oppos ition
w ho
ê± ´
tr ace
ep id
N ar
B E
Ñĥ Ð¹
S ign
ed ly
cl ay
inst antly
gather ing
Gal axy
b ored
Budd h
sl ope
sch Ã¶n
p ir
ge f
colle ague
pres ents
ad ium
à® µ
fal ar
dri ed
ism s
ro pe
works hop
est ud
them es
åħ ¬
ÙĬ Ø±
åĲ İ
remind er
B h
cocon ut
Ñģ ÑĤÐ¾
Ch annel
immig ration
Ã¤ s
ä¸ »
çĻ ½
st op
Ñĩ Ð°Ñģ
dest ruction
bar riers
ant ine
print ed
congrat ulations
He art
hard ly
A ven
t inha
S ony
N F
gradu ates
sque eze
ere my
ep ic
J u
ol m
La ughter
belief s
C ru
Tr ue
S oul
owe en
rom antic
Y up
éĺ ¿
d im
in fer
so c
uk a
prec ise
dro pping
cl ue
er rors
char ge
P u
omet er
lamb da
ac ional
D ong
cham ber
thank ful
N u
Haw ai
inf o
activ ate
Q ual
qu ed
Ñĥ Ð»ÑĮ
cl oth
åĸ ľ
w ichtig
5 5
ot ra
ograp her
cur ios
19 80
emp res
d ess
e ur
cl uster
ob ile
Y an
Ad v
discipl ine
ìłķ ëıĦ
Pl ace
Se lect
Ð±Ñĭ Ð»Ð°
wh is
D or
en cing
rep et
f icar
p ad
f og
u yor
sn ap
ib t
so bie
appoint ment
R y
ce iling
our se
wr ites
Afghan istan
m os
az e
pen al
cry stal
IC E
ê° Ĳ
é Ł
Tes la
the ories
appe al
newsp aper
cook ies
æ ©
Ø§ÙĦ ÙĦ
ma j
Get ting
k ommen
He aven
ell s
div ine
Ä «
a kt
hop es
Ch en
** *
Fra ge
à¸ ¹
min ister
nes ota
wh ich
expl icit
verd ad
gradu ated
Ph ilipp
Q L
dev ot
c ure
clos est
Ã Ħ
sex y
ãģ Ľ
De ath
ug u
An ne
itar ian
es a
D ur
tour nament
mel hor
à¸ ª
in du
f law
w ars
M ind
I ron
ÑĤ Ð°Ðº
s iz
S outhern
ê·¸ëŁ ¬ë
aw ak
ìķ ŀ
c ube
believ able
if all
d is
abandon ed
m ind
par l
class ical
è ĭ
á»Ļ t
Aut o
B or
ç ©
4 00
Soci ety
subt le
miss ions
remember ed
E ither
da fÃ¼r
OR D
int ensity
ES IN
C up
rare ly
to ys
Char lie
á» Ł
gla ube
round s
T IN
cap ability
deriv ative
refer ring
d Ã¥
T ALI
cott on
con fer
colum ns
liber al
nun ca
Î¼ Îµ
ind o
ib en
Be ispiel
Ñĥ Ñĩ
h oy
fr y
Scott ish
è Ĭ
c iv
conserv ative
air pl
s ar
invest ments
infin ite
à® ķ
TALI ESIN
ue ll
C ir
rit ual
>> >
tem pt
Te ch
Poke mon
improve ments
sp are
transl ate
son ra
Fil m
w ort
period s
je alous
ãģĦ ãģĦ
M I
conduct ed
ìķĪë ħķ
Pol it
Where as
moist ure
s ins
Ñį Ðº
ben im
elimin ate
athlet es
Man ager
feature d
ap ore
äº Ľ
per f
Th us
deb ut
se Ã±
myster ious
w ords
Ķ ê°Ģ
check s
volunte er
was hing
Mar vel
iss ors
! '
F ull
ye on
we igh
JO HN
proced ures
address ed
Ber lin
put er
B an
medic ation
dr one
Ñĥ Ð±
Je an
cap s
disappoint ed
w ore
êµ Ń
organ ize
Hall oween
fant asy
y ard
nos otros
jump ed
phot ography
N ame
re c
A B
bless ing
Sh ut
bit ter
p op
de i
fulf ill
çĲ Ĩ
den gan
be lo
Mean while
dep ois
di abetes
bu nd
Ze aland
dig est
t ires
do d
ag ne
áº¿ t
pe el
n odes
trend s
Sw itch
A ward
Or ig
H al
est as
sim ult
com ic
m Ãł
Prin cess
kilomet ers
á» ©
part ir
ì¤ ĳ
so ft
bi ological
in st
man era
compreh ensive
cr imes
y ers
Comp any
Ph ot
pou co
i ac
be im
in ate
sub sequ
May or
cent uries
Ã¨ res
ìŀĸ ìķĦìļĶ
ê·¸ëŁ ¼
Fra u
ëģ Ŀ
N ah
Ser ies
over night
íĴ Ī
tra ve
atter ed
war ri
Gru nd
Ind ones
sc ra
ob y
Bro ok
cur s
ë ¸
expl ains
ram atic
particip ating
min ut
contract s
g egen
disappe ared
rob ust
ap h
sh rim
dev ast
me ets
peace ful
m ate
we ld
× ª
d on
Ñĥ ÑĤÑĮ
register ed
N ik
c av
e cht
io x
flow ing
to e
ent ity
f its
Pat rick
ÑĤ ÑĢ
le verage
cor rel
i ah
ist inct
g ue
arch y
teng o
Ä±m Ä±z
or bit
ä¸ º
ca ke
Min nesota
bra ke
ow ie
cra w
ê¸°ë ¥¼
program me
åı ª
ien ces
O ui
P ers
im iento
In vest
sl ower
æĻĤ åĢĻ
B eth
nur se
Spr ing
S p
un employ
gen ius
A aron
ê·¸ëŁ ¬
ãģĹ ãĤĩ
tank s
au jourd
complex ity
ÑĢ ÐµÑĪ
old est
let z
åħ ¥
phenomen on
pr int
Bund es
it at
ê» ĺ
W i
inc om
g ek
embr ace
t ies
out e
d ose
F riends
Ñĭ ÑĤ
or g
Ħë ¡ľ
Ã³ g
ex ceed
god s
ê±° ìĺĪìļĶ
soci et
Un ivers
it Ã¤t
word en
sm oking
int ens
ab ul
em ia
è ĳ
f ly
200 6
Ser iously
prze z
æ ¼
c re
mod es
H ang
em en
benefic ial
vot ers
Bro ad
b ent
W ow
m ul
åĵ ¥
dam aged
Uk raine
w ipe
man agers
r ab
ÑģÑĤÑĢ Ð¾
l at
de ce
graph ic
f oss
disag ree
Am en
sec rets
ho le
ink le
fortun ate
ìľ Ħ
èĲ ¬
hab its
bur ied
h in
virt ually
ol as
T ab
l ow
sacr ific
estim ated
ol n
Ù ĭ
c ur
Fe el
cast le
us eless
dis g
ga an
up side
pare ce
ãĥ³ ãĥ
sh ipping
dis rupt
ac ter
UN D
f u
å® Į
P ick
Char l
B ull
enter prise
punish ment
ack ing
fr action
tab let
ch ord
similar ly
åħ¶ å¯¦
Tor onto
cour ts
ÄŁ l
esz cze
pron oun
S ister
M P
great ly
D ank
ic op
gar bage
resol ve
S af
G un
comp ound
âĻ «
cha os
When ever
e uros
or chest
refr iger
à¸ ·
Am azing
p ud
ag an
j eszcze
is y
accur acy
A ma
is ode
ë ĮĢ
interpret ation
L iber
æ ·
c am
evol ved
ÑĨ Ñĭ
creat or
it as
al arm
celebr ation
z ent
fun cion
o v
umb ling
à¸ Ī
restrict ions
K inder
ban ana
ÑĮ Ñı
diam eter
nor thern
ur ers
P as
æĪĳ çļĦ
work force
guar ante
equ ilib
eu ro
del iber
S te
downt own
c odes
ed ia
she ep
res hold
wn ie
Ã³ b
under lying
l ia
ÏĢ ÏĮ
ç Ŀ
th rop
z ap
vac uum
H ab
wra pped
ì ¢
invent ory
co ord
pl ates
sy mm
T e
wÅĤa ÅĽnie
reach es
lon ely
ess er
Ges ch
Mo ving
rÃ© p
V ill
åĲ Ī
R achel
tem os
stra in
f Ã¥
T r
highlight s
W er
Car l
bl ur
reg ards
Â ·
rec re
Y ani
U CK
ł ¸
electr ons
Sp iel
v ed
Ú ¾
be am
id iot
ë ĵ¤
id d
sk i
it ative
hyp othes
ãģ§ãģĻ ãģŃ
ent er
ìķĦëĭĪ ë
ih re
pre view
ang el
dem on
d us
d ic
K om
LE Y
... !
sie ht
Son ic
ten ho
an as
dig it
Ma ar
under grad
oun cer
uff y
convers ion
dis connect
e cho
om er
curric ulum
per chÃ©
.. ?
entreprene ur
theore t
ins ights
zus ammen
o in
ret t
p rodu
visit ors
e ous
grand mother
hum or
zen ia
ins on
res et
base ball
match ing
ëĭ¤ ê°Ģ
pun to
re de
address ing
fore cast
B ol
document ation
expect ation
Nor thern
cre o
uns ere
cop ies
expand ed
veter ans
Al m
psych ological
nos so
pay ments
im eters
-- >
volunte ers
os se
or ious
Ð±Ñĭ Ð»Ð¸
è Ĥ
Es s
B C
I C
v ont
eth nic
EN N
lo b
ou i
re he
ìł ģ
ch ick
Ãºs ica
k ont
Dist rict
p ile
Â £
iss ued
pros per
prof ound
ãģ ĵ
b isa
ŀ ĺë
× Ł
ìĿ ĺ
tw elve
Champ ions
éĿŀ å¸¸
Ñģ Ð»
200 5
on de
diff Ã©
Ch all
difficult ies
gar age
d Ã¡
Ã¼n k
ë¬ ¼
tr an
subm itted
z w
ar k
ìĦ ±
grocer y
i ere
a est
exhib ition
consist ency
cook ie
repl acement
æ² ¹
S em
ìĤ¬ ìļ©
8 00
trans action
E L
dur ante
ib les
E at
t ail
iss ance
to ss
surv ived
off ices
support ive
Wh ere
tout es
j okes
ier on
ap ers
m ature
M arsh
s ido
k ind
real mente
Che f
quel que
jud ges
e ft
ER S
j et
pers ons
è »
iz ations
ri k
sh ops
W y
ele g
qu oi
jug a
íķľë ²Ī
Quest ion
Glo bal
ìķ½ ê°Ħ
æİ ¥
Oh io
stick y
st ressed
g Ã¼n
í Ŀ
ÑģÑĤ ÑĥÐ¿
é ¡Į
Ph D
im mer
ment or
inv ented
re un
ine vit
pol ÃŃt
exec ute
St ory
out standing
gu er
R ain
ch oses
T it
Ñģ ÐµÑĢ
Sing apore
N one
ch ronic
°ë į°
e go
æł ·
ES T
W ang
N AT
des ktop
etern al
ìĤ¬ ìĭ¤
Const itution
ìĤ ¬ë
×Ļ× ľ
p res
inter f
list s
fight s
ft en
I owa
motiv ated
H osp
else where
path s
inst ances
B l
r ange
á» ±
S it
ìĭľ ìŀĳ
m Ã¬nh
ans as
philos oph
pas se
Æ°á» Ŀi
ak h
ent al
ru ctor
gener ous
p ivot
jam ais
com ent
L ew
od zi
X box
cons ent
ī ìŀ¥
dis par
Govern or
Be ifall
ê° ľ
belo ved
×ł ×ķ
se ll
hon ored
le h
w Ã¤re
un ting
fra ud
R AM
ê± ¸
kill s
econom ics
co isas
ÃŃ m
mÃ¶ chte
ìµ ľ
stim ul
fast est
l v
g Ã©n
S ounds
19 70
home work
spe aking
encour aging
qu ery
re vers
pro fit
d y
ìŀ ĳ
ëĬĶëį° ìļĶ
so ap
G all
C N
An s
f ic
ank s
dess ert
ìłĢ íĿ¬
M aking
come Ã§
ê³ Ħ
associ ation
D ad
he e
h ogy
ap ro
invis ible
Americ an
í İ
vi be
em issions
advoc ate
kick ed
sum mar
fre aking
pin ch
wszyst k
isc al
pro ved
mind ful
t Ã¤
no ises
isol ated
cross ed
vo ilÃł
ch ore
R A
C om
relax ed
at ro
pre vention
Co vid
separ ation
- [
Ð¸Ñĩ ÐµÐ³Ð¾
çĻ ¼
ble ep
independ ence
part ial
algorith ms
Any one
associ ate
h um
ic ular
b áº¡n
batt les
G ood
bast ante
adv ant
S weet
ref used
ãĤ ¸
pl et
encour aged
åĵ ¦
mir acle
B un
V ar
rim ination
e lect
M ult
deliver ing
L ine
ë§ Į
en ced
Cont in
ij d
UN G
k le
th reshold
comp act
ad t
to es
P ur
own ed
ment ed
des igning
vacc inated
exha ust
bas ics
cons ists
Gu y
ac zy
m ÃŃ
w on
å® ³
æ Ĥ
m um
ign or
print ing
ac ular
p ow
expand ing
g ir
C ab
ÑĤÑĮ ÑģÑı
ìĹ¬ëŁ¬ë ¶Ħ
ang les
term inal
W on
Inter esting
cross ing
bond s
pu eden
lar Ä±n
creep y
nutr ition
all ies
wire less
des ired
comp ute
Ari zona
Beaut iful
produ ces
nuest ro
el igible
Ñģ Ð¾Ð·
ic ial
H ero
cons ume
rob ots
purch ased
c ciÃ³n
Æ°á»£ c
Î¯Î½ Î±Î¹
shad ows
Med ia
prin cess
k lar
wood en
us ar
g Ã¼zel
sl ot
r ade
ë Ĵ
har mon
ingred ient
ors hip
ek i
grand father
excit ement
polit icians
.. !
out s
separ ately
Ñı Ðº
W elt
P ow
orient ation
åı ĭ
age m
ÛĮ Úº
åĲ Ĺ
bran ches
ad en
rent e
I hr
as m
est Ã£o
N ic
sla ve
comp ress
c rowd
clim bing
Man agement
B ah
pan ic
cool ing
b ind
r ack
ent it
s ends
your selves
d es
Muslim s
í ļ
ism a
cy cle
un kt
C ore
inj uries
ident ical
Deutsch land
is an
tr uc
let on
back up
ult ra
ab und
ille urs
by ÅĤo
åħ ĥ
ort ed
earth qu
obs ervation
mainten ant
el en
sett led
p ela
E conom
ste ering
C her
pat ience
S now
b or
cÃ¡ i
× §
d og
K aren
ill es
agric ulture
×ķ× Ł
sens ors
íķ ´ë
ag h
public ly
pe ux
Alex ander
prior it
la zy
ard on
atter ing
cost ume
Ø³ Øª
è¿ ĺ
un w
Ð Ľ
thick ness
qu ito
g unt
ist as
ne ys
ëĲĺ ê²Į
Br asil
to ken
aff ili
l on
f Ã¥r
Be ach
w itch
Se ven
p ant
Î» Î»
capt ain
å Ŀ
ve ut
pou voir
ac z
Bar b
ut ility
contempor ary
obt ained
painting s
e ar
pe an
O g
c ust
Ĥ ĺë
Is so
ac onte
Te le
Ã ī
count s
bu ck
De ep
tack le
h arsh
dec ides
éĹ ľ
. âĢĭ
éĤ Ĭ
lay ing
cal ories
contro lling
advant ages
ÑįÑĤ Ð¾Ð¹
appro aching
threat s
ak an
em atic
m ann
ê³ µ
m umbles
ac iÃ³
maint aining
f ight
adm itted
âĢ¦ .
ķ Į
us age
n onsense
Pal est
cont re
Democr atic
E R
j ekt
ar bit
Mich elle
ich er
es h
P ho
Ener gy
Î¿ Ïį
ref ers
g ospel
Sh a
Sh are
×Ļ× ł
clin ic
ëĦ £
equ ality
ug s
sh ed
plan es
tout e
stra nd
bi ology
le ague
P ok
nÃºmer o
Co ast
consist ently
nuc le
OO OO
ob jet
ch or
g inger
d abei
coop eration
à¯į .
nt en
ç ¤
l Ãł
r ado
pass ive
glo ves
under ground
log ical
k et
function ality
¸ë ¦¬
port al
ell er
×Ļ× ¨
T ed
G re
Ĳ ľ
person nel
emer ging
F Ã¼r
meant ime
usal em
C lear
tra pped
ìļ °
dis pl
met tre
mun icip
withd raw
sp at
un es
access ibility
æĪĳ ä»¬
ap are
pros pect
cop per
P RO
Ïħ ÏĦ
attack ing
V in
St one
investig ate
st yle
Î »
ë ¡Ŀ
ë§ Ī
ins pect
li ver
ser a
min istry
' '
d ots
ãħĭãħĭ ãħĭãħĭ
J ak
AK E
g aps
uck er
Ð¸Ð½ÑĤÐµÑĢ ÐµÑģ
Em ily
inter val
t ender
Techn ology
g ame
tri b
Develop ment
wr ist
target ed
so d
oldu ÄŁ
se asons
vent ions
somet ime
n Ã©
t Ãº
De us
exec ution
Ã¡ p
Ch ange
Ind eed
reg ulation
H ung
Ã© is
wish es
j azz
struct ural
blow ing
by Äĩ
therm al
ph ant
ÑĢÑĥ Ð·
P ull
conf usion
Ð½Ñĭ Ð¼Ð¸
scen arios
ìłģ ìľ¼ë¡ľ
tatto o
he ating
treat ing
exc lus
we ar
ag le
zur Ã¼ck
r ational
s u
det er
N ative
à®ķ à®³
ach ed
Ent onces
hor a
ìĿ´ìĹĲ ìļĶ
l ite
Ã «
six th
act or
psych ology
çĽ ¸
dem ands
pe er
new ly
WW E
Don ald
Bo x
load ing
s ÅĤ
omm e
AR T
recru it
bug s
arent s
Ð¿ÑĢ Ð¾Ð±
In side
ipp er
d ramatic
plan ets
ord e
y oga
ch ild
Mar ie
ãģ Ĥ
fil med
ref resh
tomato es
f et
ëĤ ´ë
r ine
interact ive
s al
ann ah
pe z
ç¶ ĵ
understand s
Tok yo
libr aries
read er
ĳ Ĳ
o z
End e
F lo
m ild
po etry
æĦ Ľ
beh ave
do en
Sus an
p age
ra ham
communic ations
tun ing
p ac
anx ious
M ark
hi Ã§
book s
p iss
en abled
achel or
F OR
Ã© c
il st
h at
ìĿ Į
ty ch
j ar
build s
Ar gent
inter medi
l ou
a ra
assign ment
cabin et
retire ment
ãģ »
dis abled
ric a
a wards
bo ots
acknow led
êµ ¬
sy nd
il ton
prob l
F al
verd ade
Le arning
oc us
pal ace
N ot
t ain
c m
magn et
inc oln
fig uring
L yn
B oss
diagn osis
equ ipped
w atch
in os
ad ers
organ is
n od
k Ä±z
pp ers
rest ore
art ic
Vo ice
Ä± yorum
ê² ©
spread ing
h ips
w ard
ure au
inter section
3 9
ç ³
wait ed
ì ´
hh hh
d ys
E N
b atch
ca f
mark er
å¤§å®¶ å¥½
or able
Ã³ ria
ste pped
celebr ating
wor n
F ol
attempt s
twe et
g ence
re vel
re cept
en ess
( (
ãĥ¼ ãĥ
! âĢĭ
influen ced
colleg es
ion i
s ag
An n
ol ar
express ions
su its
owners hip
el and
pie ce
æĢİ ä¹Ī
desp uÃ©s
t el
ins ult
êµ īìŀ¥
Sm all
ok a
Ant on
Ñı Ñģ
val ve
act s
wood s
à® £
cult iv
f Ã¡
ãģ¨ ãģĦãģĨ
assum ption
fit ness
ÃŃ cul
pod r
H ind
d ign
squ ad
dest ro
c ere
sh irt
imm t
eng ers
s Ã¤
k ÅĤad
occ as
process or
D M
Dad dy
soon er
straight forward
depart ments
Chr ome
work place
Py thon
m eng
D AN
I ce
G i
h iring
land ed
democr atic
ied z
ãģĺ ãĤĥ
se v
ic ia
espe cial
N ous
h Ã¤t
b ou
per t
ies z
åĳ Ģ
ÅĽ li
Ã® n
loss es
éķ ·
to ast
real m
Aust in
In formation
res ume
ch ase
sal ary
ë¶ Ħ
Fur ther
car ing
v ig
val or
è¿Ļ ä¸ª
Ñĩ Ð°
analyt ics
glo be
M AN
n el
Ł ¼
o y
íķĺ ìĦ¸ìļĶ
j en
trou bles
ah aha
church es
u et
measure ments
b il
ì ½
if ully
Wil son
¦ ´
p Ãºblic
Jer usalem
n ails
sp ine
he mos
Le ben
refer ences
IT H
i per
ì ģ
W a
st ate
§ Ŀ
åħ ±
Gen er
act ress
En joy
à¹ ĥ
× Ĵ
infect ed
sh aking
n ick
à¸ ¸
f ot
accompl ished
u ke
she ets
f ence
nurs ing
introdu cing
fe at
O ne
T O
cl ubs
Bru ce
on ge
ch ange
Bat man
åı °
Offic er
hyd ro
supp lement
c ela
long est
compet ing
con he
g iving
bra ins
lo ans
w age
Cl inton
s Äĥ
ane ous
ÑĢÑĥ Ð¶
qu iz
st iff
L GB
s z
M E
m are
th ere
n Ã¤r
M and
l ast
half way
B and
ëĭ¤ ìĭľ
A ren
i le
P N
ent o
alg um
soc cer
block ed
Jon athan
se w
Test ament
behav i
å§ ĭ
con na
IC H
aud iences
amm ad
ìĤ ´ì
I GH
r aces
em ed
m á»Ļt
Ã ¯
over s
decl ared
s ana
U na
uck s
p airs
an ge
N e
up s
av y
Ã¸ r
ree k
behav iors
reflect ed
prior ities
con du
ret reat
exp enses
ë´ Ĳ
tri ple
êµīìŀ¥ íŀĪ
Ã¤ lt
ind igenous
min ing
ru in
u ine
pip eline
ct ic
Ãª t
Ð²Ñģ ÐµÐ³Ð¾
b oun
Dig ital
Bo om
as c
ĮĢë ¡ľ
Good bye
rend er
ene z
ar re
TH AT
ic iÃ³n
ãĤ Ń
E very
w ires
Par liament
n ung
ate ur
Ph ys
am or
E ve
fr ight
gam ma
mic ros
C ode
Be y
ç Ĺ
å¥ ¹
mon et
Jah re
lux ury
de af
bet ray
defe ated
under t
we g
cool er
ãģķ ãĤĵ
iam i
éĤĦ æľī
J oy
soph istic
ch ili
Ty pe
prote ins
present ing
al ia
Maj or
molec ule
um er
coll apse
Any ways
Mount ain
ant ed
ãĢ Ĳ
æ° ´
A ud
con qu
vo ll
kn it
mem br
Mark et
d ari
calcul ated
shrim p
M u
Ð¿ÑĢ Ð¾ÑĤ
ìĺģ ìĥģ
product ivity
cogn itive
He b
ict ions
ê² ½
cr Ã©
f Ã¶r
pray ing
ash i
T ik
w en
ÑĮ Ñİ
ix o
( "
ÑĤ ÐµÐ»
ìĸ´ëĸ ¤
Ð¿ÐµÑĢ ÐµÐ´
ãĢ ĳ
E qu
equilib rium
descri bes
4 2
Cur rent
y y
absor b
sold ier
testim ony
dec line
ľë ¡ľ
g age
insp ire
la pping
spin ning
sla very
fac ial
trad itions
Ã¡ri os
Hosp ital
n est
ëĪ Ħ
fe ars
ìħ ¨
M uh
gradu ation
impact ed
a unt
Let s
alumin um
domin ant
Dav is
Nav y
com pt
op les
est ava
è ¥
sc al
pres erve
O pp
pract ically
magn itude
f itting
coordin ate
furn iture
Fam il
explos ion
document ary
S cript
port ray
m at
schedul ed
dynam ics
ph y
ak y
C he
continu ously
Pro v
å° ĳ
ra h
ger ne
pro of
secret ary
Pat reon
sc ream
K ids
á»ĵ i
uncertain ty
mit ig
read s
å· ²
R u
pri est
limit ations
flo at
6 00
T oy
Jim my
off ensive
en i
eye br
Tur k
accident ally
oh ne
S aud
9 5
D utch
Se attle
ëĵ ±
che ck
k ÄĻ
contrib utions
bes ide
qu indi
fle w
æĹ ¶
Ø° Ø§
wa ist
E V
hol idays
mis under
Ñı Ð½
d imin
áº ½
Ã³ l
Gr ace
input s
den y
B ild
ad equ
reject ed
frust rated
op en
Bet ter
il on
tow el
different ial
sac red
sa il
éĩ Į
ent imes
gentle man
icon ic
comp aring
s agt
text s
grand ma
roll s
cont ents
ä¸į å¥½
Ð¾Ñģ Ñģ
susp ension
ro it
¦ ¼
asse z
d ort
M ath
Vict or
Java Script
ä¸į å°į
en han
Å Ļ
B ush
promot ion
k in
mon sters
Color ado
Î ²
æŃ £
iffer ent
n aked
pro d
et ics
W oman
treat ments
est oy
lif ting
y apt
Ro ber
subst itute
ak u
ê± °ë
respond ed
Engine er
transfer red
ë ²
ha ber
o op
v est
for ty
D S
200 4
co aching
n om
B ab
n ossa
g y
de leg
ìŀ ł
ÐºÑĢ Ð°Ñģ
stand point
dis ad
art work
A d
ill o
Äĳ Æ°á»£c
Pr om
L ib
critic ism
contact s
ÑĢ Ð°Ð¼
achieve ment
diss ol
Veg as
stream s
K ent
Ø¹ÙĦ Ùī
rad ius
su cks
A ch
f i
ou st
pal ette
H az
Anth ony
tem a
C os
sa fer
Î± ÏĤ
cont rad
ma ior
infl ation
Sil ver
att ending
íķľ íħĮ
art o
applaud ing
comput ing
H at
æ »
k now
con oc
educ ated
mod ified
inc lusion
ment al
ŀ Ĳ
is ia
a un
Ire land
compl iance
insp iring
Ð¸ÑĤÐµÐ»ÑĮ Ð½Ð¾
disp os
ì° ¨
w ip
r ical
raw d
t res
mob il
olut ions
b ounce
assum ed
Med ical
f iscal
ng Æ°á»Ŀi
ition ally
st olen
mechanism s
ìŀ Ĳë
ught ers
H IV
L ots
ser vers
car r
T ogether
attract ed
th ur
in in
H alf
È Ľ
P ap
remind ed
AL L
hel met
bott les
profess ors
se ine
ÅĤ Äħ
ãĥ ı
f un
B ird
fight er
ëĶ °ë
T ool
ino is
ë ¶Ħ
×Ļ× Ł
åĲ į
irst y
out door
ãħ İ
ff en
l ud
H ello
ie le
Pol and
ap a
ex p
certific ate
T own
Ð°ÑİÑĤ ÑģÑı
ild e
determ in
P R
free ze
main stream
object ives
b lo
tak ie
åĵĪ åĵĪ
ë°Ķë ¡ľ
el et
I V
F ast
d ere
em p
D ra
ìŀĪ ìĹĪ
disc rimination
Îµ Î¯Î½Î±Î¹
ne cess
æ ®
Ä±ÄŁ Ä±
post ing
wi ÅĽcie
l ub
ol ive
r im
model ing
a Ã±o
Pak istan
over l
inf lam
N E
ìĹĲ ê²Į
att ended
deal t
Al t
L incoln
aw ake
fil ters
With in
czy wiÅĽcie
s Ã»
John ny
integr ity
isol ation
E asy
Ð¿ÑĢ Ð¸Ð½
Al ice
sm iling
en ix
, ...
beg un
jew el
convention al
stat ist
ir re
pro hib
satell ite
é¦ Ļ
Ind ust
tra ged
tra va
ih m
cru el
Ag ora
D oc
z ones
m all
tr ay
×ķ× ł
ir rit
k ans
Be at
ud ge
ie lle
trust ed
b ikes
Ñĥ Ð¿
M ember
w ick
creat ors
her itage
ind istinct
res ur
enn en
C ome
f iring
Bu eno
ik an
ett es
k es
tri ps
divor ce
K l
cons ol
ke ep
ê¸° ê°Ģ
Rep ort
host ing
diam ond
compl ic
hel icop
dep uis
d s
Ch an
Ñı Ð»
sc issors
il ation
prop ortion
ER E
ÙĪ Ø§ÙĦ
int a
much as
u ation
it is
æĬ Ĭ
Ñı Ñī
ni in
emphas ize
uel a
produ cers
r ze
Ã¤nd er
ET H
æ º
const itu
åĽ ½
perform ances
ist le
go v
L iter
incorpor ate
educ ate
N in
Ùĩ Ùħ
el eration
×ķ× ĳ
ya ÅŁ
or ous
C as
gr ants
ëĬ ¥
am el
ê·¸ë łĩê²Į
E ste
Ð¿Ð¾Ñģ Ð»Ðµ
g ent
focus es
al ities
ë ³´
æ° ĳ
D ance
r r
am er
util ize
l ÃŃ
Am ong
pregn ancy
lo ops
M oh
catch ing
glo b
a jud
[ ?
An al
lo oking
surf aces
progress ive
vir al
0 8
pick s
ann on
bul k
R oss
descri bing
G el
loc ally
end less
mass age
clean ed
travel ed
sent iment
ig ma
N as
chemical s
right eous
Mag ic
rel ates
truck s
19 60
åĪ ¥
app et
sn acks
Sum mer
y Ã¼z
pr is
Mex ican
transp aren
minor ity
ver te
ÑĦ Ð¸Ð»ÑĮ
i yi
sp an
ind icated
qu ar
scholars hip
LGB T
histor ically
Ã³ ÅĤ
min ist
pen et
R ap
cons ervation
çĽ ´
H oney
Be i
id el
respons ibilities
mess y
Ex cept
OR E
initi atives
jun ior
design ers
expl oration
spons or
mob ility
int eg
land o
b ark
indic ates
à ¶
employ er
å® ī
cous in
bo iling
ch rom
Ã§ al
per pet
cont ained
park s
Ð «
Engine ering
P lease
Start ing
her o
law yers
è¥ ¿
franch ise
ra ge
int uit
re ach
E lle
nh Æ°
N ord
0 7
å½ ĵ
v iron
grad ient
z us
E M
ess ay
ìĹĲ ìļĶ
áº¿ n
n u
á» «
Ãī s
den omin
Girl s
person nes
Ø§ÙĦØ £
St at
compl iment
K ate
optim al
h id
Ø¯ ÙĬ
quick er
w all
E n
IN E
?? ?
A ction
å Ł
penal ty
K az
' ?
c ried
can vas
ft e
exc lud
¸ë ¡ľ
emphas is
en zy
H ou
overse as
ÃŃ amos
å¸ «
Ã¶ glich
head phones
c n
A ge
a kan
character istic
get s
ë¶ Ī
r ival
b orders
em ente
em Ã¡s
y ol
com pe
end ers
Ä±nd an
mÃ¶ glich
bubb les
nat ural
el abor
ìĿ´ë ²Ī
wash ed
Î¿Ïħ Î¼Îµ
è« ĭ
fl avors
exist e
pre st
The ma
er on
er i
conc er
a ixÃ²
åħ ©
protect ive
me er
Sh op
ll i
Or der
G host
ãĤĤ ãģĨ
st ole
rele asing
tra ins
ë ªħ
w issen
ens ed
desc end
f ier
rad i
pers u
ç ¢
D est
wor ries
it et
b as
st ab
n ame
or ic
Cl ose
alum ni
S elf
ff e
it ating
ather ine
Right s
ell os
war rant
n erve
veget able
Te il
ê°Ļ ìĿ´
R Y
sustain ability
ste ht
br id
ada ÅŁ
dur ation
pesso a
met rics
ad am
c as
Ð°ÑĢ Ð¸
ev ident
display ed
Ø§Ø ¦
re ck
Budd ha
de le
Die go
os ph
M ik
ul ator
200 1
promot ing
y ch
last ly
out line
spir its
ve ux
subt ract
ÅŁ imdi
p ins
mol to
hab ÃŃa
ig u
er st
n en
bac on
it ious
car ries
prom ises
nd e
Le ft
L im
æ £
4 4
care ers
speed s
qu Ã©
m ad
mark et
is me
200 3
re cess
J UD
rac ist
Sch l
par ler
ot ros
ish es
convert ed
aa aa
Ar k
Ch ance
element ary
ink s
fre ely
al ah
ëĭ¤ë ¥¸
request ed
tor que
no ÅĽci
ou red
St aff
st ain
Al an
v ere
W inter
def ect
ied y
be ats
h Ã¡
um n
o ons
it udes
se it
o ly
res erv
ext r
phys ician
vis or
hand ful
N ations
ì¢ĭ ìĿĢ
uc cess
up stairs
Squ are
Se ason
ol is
pr ince
def ensive
ç ½
Ñĸ Ð¹
Ø§ ÙĨ
um ble
ê¹Į ìļĶ
ass ass
circ ular
qual ities
h mm
bl own
L iz
K ur
S A
find ings
col ours
de lle
I R
A th
D ub
O x
Ø ®
po ckets
gr ill
switch ing
prefer red
W ales
ex emplo
chop ped
vacc ination
ne uro
spec ify
iv os
ser Ã¡
z ie
à® ®
result ing
U gh
mess ed
C D
pa ar
com er
cou ch
Fest ival
4 9
v ous
z ens
ç¨ ®
Kenn edy
ë³´ì Ĺ
demonst ration
frust rating
labor atory
e gy
beaut ifully
ìŀ ¬ë
al gu
Ã¶ yle
ä½ł çľĭ
fort une
clean er
Rob in
sa us
G eld
o bs
ol ur
m att
quest a
suggest ion
en cer
rad ar
ish a
à® ¨
ãĤĵ ãģª
j es
ve el
auth ors
ãĢ İ
pl an
collabor ative
inst inct
far ming
au ge
members hip
simult aneously
b ake
lect ures
Ñĩ ÐµÑģ
prend re
coll aps
S aya
F ut
y og
R ather
Ø± ÙĬ
camp s
sim ulation
M ak
gre y
sent ences
Un less
J e
Sat an
N A
br on
? ]
soul s
light ning
imag ined
czy li
ps ilon
et ta
belie ving
strong est
quel ques
immig rants
wall et
éĢĻ æĺ¯
Jer sey
implic ations
for b
ãĢ ı
un believable
Ø§Ø ¡
oper ational
Ã¼ s
ê·¸ëŁ °ëį°
grac ias
ent end
Reg ard
ro b
ÑĤ ÐµÑħ
è ı
Rev olution
wa ar
B iz
th eless
spons ored
te k
ëĲ ł
ig keit
L uck
Certain ly
to ll
M oney
Ñģ ÑĤÐ¾ÑĢ
Dou ble
W olf
ch unk
Î¬ Î½
it Ã©s
on ing
M ar
grand es
collect ions
Europ a
âĢĭâĢĭ âĢĭ
ê·¸ëŁ¬ë ©´
ãģ ª
C ustom
Ñĸ Ð»ÑĮ
individ ually
í Ĺ
do zen
o we
Vict oria
åı¯ èĥ½
be et
ur b
anal og
i Ã§Ã£o
Ĥ ľ
so ever
mod o
subscri bed
ent ities
çī ĩ
clos et
respond ing
prin ter
Step han
by ÅĤ
D om
F ern
P ier
wiÄĻ c
h ence
mod ules
ãĥ ¬
ëĶ ±
Dann y
ìĹ Ħ
s ous
sp here
P ed
ign ed
whe at
und ers
evol ve
dec lar
ident ifying
æĦı æĢĿ
legend ary
gen uine
gr ind
U ne
b icy
jump s
prov ince
zi ÄĻ
h oc
Gr ad
reven ge
Ø§ÙĦ Øª
æĭ ľ
å¹ ³
elect ro
ãģ§ ãģ¯
f als
ri el
ok er
Ex cellent
Mor gan
br ick
substant ial
poll ution
T Ã¼r
Ev et
ãģ ĸ
×Ļ× ©
omm es
real izing
hum ble
L ock
pe ers
uz z
embed ded
clar o
ag greg
employ ers
R aj
ãģ ¨
Y i
je u
at ers
stri kes
n os
d r
op her
App arently
inf ant
ÑĤ Ñĭ
í Ľ
Ú ¯
red es
acaÄŁ Ä±m
DA VID
Ch icken
perspect ives
view er
sh ar
lig t
er os
it able
dif ÃŃ
´ë į°
ret ired
that s
zen ie
be iten
my cket
R ab
inflam m
ì° ®
d um
dad dy
æľ Ł
play list
à¯ Ĩ
tra um
ref use
st ep
à® ļ
c up
pop s
r imin
ay Ä±m
a ld
un necess
Ir ish
comp r
la ÅŁ
transl ated
S c
ce ÄŁim
´ Ĳ
d rei
qu iero
he le
z lich
app les
district s
cred its
as p
ëĭ ¨
å½ ±
ste pping
V a
g ains
6 5
nuest ra
ed ay
ass ador
L ind
crop s
ci endo
ig ue
b ana
A m
add iction
pack aging
Ã¤ d
ª ¨
per quÃ¨
campaign s
ste ep
ne ue
embarrass ed
dist inction
it zer
åĳ Ĭ
regist ration
ll am
Alm ighty
li est
u z
ç º
ter az
iam ente
trans actions
c Ã´t
switch ed
com bo
pray ers
intern ship
address es
char ity
è¿ ĩ
f ica
ar u
at oms
Le vel
Ð¿Ð¾ÑĤ Ð¾Ð¼
f ame
ul k
teach es
re build
Indones ia
ush i
Sh ort
ens uring
f s
e le
margin al
conclud e
am t
ver ify
Mc Donald
sk al
rec onst
M ann
bas ement
transform ed
occasion ally
z one
D ans
diagn osed
ÏĦ Î±
comm ands
president ial
ab b
brack et
L em
Ã¥ ng
favor ites
rev ol
íĬ ¹
har ass
é ħ
cle ans
st Ã¤nd
knock ed
pe oples
music ians
mut ual
C old
ze j
at ie
Hon or
obs essed
M USIC
Bre ak
Ãº ng
mod ify
s Ã¶yle
On line
f o
Mill er
lik ing
in hab
grat itude
Jour nal
arn ess
J ohn
G it
åī Ľ
sin cere
S ci
E li
symbol s
man ually
Îµ ÏĤ
F at
lab els
sophistic ated
ump s
rele ases
4 7
O M
ê°Ģ ë
B ien
Re f
è¨ ĺ
St a
E gg
indic ator
ps on
nas Ä±l
R ight
con vey
kn ot
connect s
ul as
pre ced
ine quality
am iento
rep ly
O Y
dism iss
ëĲ ľ
çĦ ¡
ÑħÐ¾ÑĢÐ¾ÑĪ Ð¾
m Ã©d
random ly
O nt
u ard
pull s
ÑĤ ÐµÐ¿ÐµÑĢÑĮ
Ne ed
So ft
strength s
go ed
um en
æŃ »
clar ity
A i
ball oon
P and
ìķĦ ëĭ
sh iny
small est
on ia
h ill
ot ing
e ing
mere ly
se us
í Ĩµ
gu ides
special ist
ste ak
ãĤĪ ãģĨ
mig ration
que le
ru ined
pu pp
å¥ ³
k end
ang an
pal m
unf air
z m
D V
ch ester
o oh
AT H
° ©
åĵ ª
r ison
invol ving
part ly
anÃ§ ais
v ow
prom inent
cry st
ib a
des erves
over t
sens it
Wh e
tight en
intim id
al iment
w ill
strength en
T an
åı Ī
ãģĹ ãģ¾ãģĻ
M un
pro ph
rehe ars
K le
ve ces
wonder ed
ok i
sens es
´ì ĭ
Æ°á» Ľ
ÈĻ i
much os
watch es
ortun ate
J uan
ìŀĸ ìķĦ
ÑĢ Ðµ
e i
ion en
experiment al
da ughters
à¸ Ľ
ment ally
bec ca
aw are
ìĦ Ŀ
what soever
en ables
L ow
o id
à¸ Ĭ
Ã³ d
construct ed
Lad ies
accus ed
D an
sp awn
contain ers
art istic
Ä± p
disc l
aut res
in as
N ation
n ag
be an
w he
ľë ıĦ
Se oul
N ich
comp lement
inter ven
Mod el
Or ange
nam on
calcul ation
se e
usted es
do ct
f oster
el astic
Ah h
a ce
P ink
J eg
de er
ãģĹ ãģĦ
jak o
Em ma
port rait
mak er
a ument
airpl ane
transparen cy
adjust ment
CD C
Ã§ on
upload ed
it er
cur se
Ã´ n
mer ce
ar an
le ak
çµ Ĳ
abs ence
Ñģ ÐºÐ¸Ð¹
read ers
al er
bene ath
ang o
h etic
fin ns
po op
du plic
H i
ig s
olog ically
op p
d izer
All en
gl i
acc eleration
vit amin
ãĥ Ń
v Ã¤
Ac cess
à® Ļ
r Ã¡s
appreci ated
n ah
pos ter
t ale
highlight ed
æĸ ĩ
Å¼ eli
block chain
mic row
cin ema
Ch ang
Se arch
ust ers
Z ero
Div ision
ÑĢ Ð°Ñģ
sca re
j elly
Administ ration
S O
l ined
ê° Ħ
ge ben
so da
win ners
³ ¼
Ù Ĵ
Am b
åķı é¡Į
å Ķ
pe g
å· ±
ra us
re wards
inc lus
high way
ha h
multipl ied
s áº½
disci ples
n ing
dress ing
attrib utes
M osc
Gree ce
Le arn
j us
person ne
pl ete
pl acing
l uego
ill ance
prov ision
l ion
t ra
bo ards
behavi our
he y
subscri ption
prot agon
ãĥ £
var a
ÅŁ u
ha ha
teas poon
æ Ł
av oir
crypt o
ÑģÑĤ Ð°ÑĢ
St ore
ab s
Stud ents
la und
int o
approach ed
° ľ
ÑĥÑİ Ñī
L abor
ot es
iat ric
gro ÃŁ
ut ive
G ib
pl acement
difÃŃ cil
f rog
J r
az ed
Ñĥ Ñī
fr ame
lock down
åĳ ³
med i
×Ķ× ŀ×
em ale
ater al
dist ant
be ars
journal ist
è§ £
Marsh all
Ih nen
uet ooth
b ag
Äĳ Ã£
High ness
ì° į
W u
Fr an
p eng
f on
hypothes is
ÑĢ Ñĥ
l y
× ļ
ìĽ Ķ
Rad io
à¸ ŀ
D av
embarrass ing
ìŀĪ ìĸ´
c age
P sych
ìĿ¼ ëĭ¨
Å ¾
im b
direct ors
S H
ÏĦÎ· Î½
á»ģ u
kon uÅŁ
option al
ik er
S ant
vers es
ë ¶Ģ
o lar
Ï ĩ
ãĥ ķ
Î³ Î¹Î±
I mm
controvers ial
er sten
reci p
Christian ity
ê´ ľ
ord on
×ķ× ©
sl ash
P f
×ķ× Ŀ
Per ry
m amy
background s
à®İ à®©
pend ant
Columb ia
in verse
ÑĩÐµÑĢ ÐµÐ·
s v
dig ging
ch em
navig ation
Sh in
Fr ont
P D
be aring
W asser
w ax
CH RIS
ch ing
press ed
E l
D al
ons in
b inding
po ons
mo ck
are st
cor rupt
st orm
ref res
Co ach
ll Ã¤
TH IS
par ag
ìĵ °
p ool
bill ions
gr oup
wel coming
cell ence
Du ke
ê¸ ´
prim era
ìł ¸
p ond
stat ue
êµ ¬ë
h atch
instrument al
resident ial
accept ing
osh i
d ate
plant ed
j oking
ì Ħľ
h ated
ÑĢÐ°Ñģ ÑģÐº
sle pt
pack ages
island s
es en
ÄŁ Ä±
di agon
O sc
mes h
sc ales
ar ity
Def ense
ãģ¡ ãĤĩ
Lew is
Ñģ ÐµÐ³Ð¾Ð´Ð½Ñı
uin ely
Cons ider
st ark
he w
As ÃŃ
³ ´ë
prop ose
íķĺë ©´
od o
Norm ally
he eft
Harr is
g ro
Blo od
b ase
i OS
touch es
insp ir
× ĵ
ser ial
unemploy ment
odd s
F ab
F BI
BR UN
weight s
Î½ Î¿
at ile
nurs es
involve ment
govern ance
ÑĢÑĥ Ð¿
ier ra
íĺ ķ
J erry
be ard
sal vation
Al ong
g entle
K i
b ol
Pl at
has ht
è¿ ĳ
w are
part ie
y cz
int r
F ih
n ent
che at
il en
ë ¯
or ie
fÃ¡ cil
et ric
affect ing
unci ation
aff airs
view ing
L an
ä¸ ĸ
M es
ĥ ģ
er ie
es pa
inter pre
poss ess
pure ly
rit o
f ound
as ma
ìłģ ìĿ¸
exam ine
Ñĥ Ð¼
bes ch
Tom orrow
B lock
vari ant
prefer ence
coach es
medic ations
íĺ Ħ
emp ire
ë Ħ¤
Ill inois
cris py
th Ã¬
be es
gl ow
è º
Stud ies
åĲ Ħ
Chall enge
unlike ly
Ð §
Ä±y orsun
DI E
minim ize
iz ard
Ãº n
encont rar
K ill
å »
van illa
Gr ant
G T
se a
s ought
nÃ¤ m
A unt
OW N
pump kin
r ag
story t
for um
æ© Ł
estab a
uch e
con gress
Re y
dram atically
Sp ort
Ye llow
ê³Ħ ìĨį
disg usting
Re cent
acqu ired
c ables
çĶ ļ
d in
v isto
communic ating
ÐµÑģ ÑĤÐ¾
ãĥ»ãĥ» ãĥ»
rÃ© g
so cks
pro ces
be cause
ut ter
coloc ar
new est
gr amm
è¡ ¨
ä¸į çŁ¥éģĵ
sh ifting
car rier
Sch w
exec uted
maint ained
Ï Ĩ
M oses
dis se
hor r
ãĢ ľ
r ally
all em
Event ually
di yor
lv ania
sch nell
ê³ ¼
ë§ ¤
strugg les
l ate
clar ify
Ã© ment
multi plic
jour n
fra gr
surprising ly
desper ate
s ul
Re ad
F ried
m ond
organ izing
ãģĹãĤĩ ãģĨ
So on
N ur
sp ider
tutorial s
nutri ents
or er
coe fficient
arrange ment
pr icing
n an
y u
B L
tri be
How ard
un ks
new er
prov in
pred iction
h os
ol sun
Ar ound
v ier
ÑģÑĤÐ¾ÑĢ Ð¾Ð½
v alley
E la
if i
gal axy
tran qu
ad vers
Tem ple
iff s
ig ence
èĩª å·±
kÃ¶n nte
Äĳ Ã³
D id
photograph s
A WS
gu ards
appoint ed
G il
Un like
even ly
isc onsin
est ou
m nie
Ex ec
M V
E ine
ä¿ ¡
Rog er
F ac
L ist
f uer
Ð°ÐµÑĤ Ðµ
om ed
attract ion
èī ²
ter rain
D rop
corpor ations
sci ences
thr one
ãģĦ ãģŁ
a j
R ot
çī ¹
supp orters
B ere
H ere
difer entes
signific ance
Ïĥ Î·
æĪĳ è¦ºå¾Ĺ
cl amp
fab ulous
æĮ ģ
assum ptions
ut her
w id
p ot
è¿ İ
y an
ul in
ÑĢ ÑĭÐ²
Sl ow
Penn sy
íķ ´ìĦľ
me io
wealth y
E ight
pul se
fr iction
id ity
H oll
i yorum
sound ed
C arr
for k
P A
cons pir
c oding
r t
Ty p
ìĸ ĳ
mis er
Sw eden
olar ak
Zh ang
Ch i
T itan
screen ing
Sp ider
Åŀ imdi
obst acles
lar a
challeng ed
á» ¥
P i
lag i
ie urs
hur ting
neg lect
gener ating
young est
aud it
Ïģ Î¬
don ate
PD F
vis its
cru ise
as er
w sp
iv als
ãģĨ ãĤĵ
de ve
prop ort
c ath
E ffect
wind s
chart s
autom ation
bo ats
ca fe
den ied
M ama
block ing
Th or
phenomen al
stake holders
un os
Ñĥ ÐµÑĤ
Ab raham
ãģ§ ãĤĤ
detect ion
jur is
z ial
wel fare
up grad
moÅ¼ na
C ase
c ular
Ķ ìĿ´
ãĥ ģ
Gu ess
ä¾ ĭ
çµ ¦
ro ck
um i
el ite
qu Ã¨
åł ±
ÑĤ Ð¾Ð¼
gun ta
k u
faith ful
a id
à ·
ug al
V el
vra i
¨ ¸
è ½
quant o
200 2
es y
res erve
deploy ed
defin ing
sa u
ga at
" )
trans mit
publ ishing
rank ing
off ense
4 6
p in
T aking
entit led
gen uinely
vari ations
find e
t au
unf ortunate
c Å
mon key
br ac
we i
l ung
art if
sy rup
lift ed
Ad vent
St ock
do l
Ð¸ÑĪ ÑĮ
y n
d et
des se
g ri
Chair man
ç ħ
cu enta
an im
cra b
esc al
premi Ã¨re
Ge f
d ining
sevent h
ch asing
T ower
brut al
fundament ally
ãģ¨ ãģĨ
st age
acqu is
cyl inder
comm ander
m em
U V
ha ppy
e psilon
inv itation
far mer
ch air
dest iny
so vere
Heb rew
serv ant
g ast
ut ies
administr ative
Comm and
nit rogen
vill ain
blank et
S end
beat en
² Ħ
vol unt
schol ar
Em peror
4 3
v able
D us
target ing
ww w
amend ment
ìĨ Įë
t ing
n asty
g auge
ÑĢ Ð¾Ð´
H ans
Y our
pro jet
Hawai i
susp icious
sch w
remo val
int rig
M U
p onto
à¤ ¾
guess ing
p ace
m others
æ²¡ æľī
avail ability
ic z
æŃ ¤
fr act
bas es
k m
B TS
F ield
d zie
seg undo
ëĤĺ ëĬĶ
legit imate
im as
cor ruption
sm ash
Val ent
align ed
Pennsy lvania
g ab
E un
ent h
Mor ning
cand le
back pack
Islam ic
a Ã§Ãµes
enc ry
mushroom s
íĮ Į
d it
trans it
W isconsin
particip ated
Il s
unf old
¶ Ģë
prof its
G ang
network ing
me ga
thorough ly
le ments
H m
dec iding
emotion ally
exha usted
c ido
HT ML
copy right
mel ody
y im
osh op
ë³ ¼
athlet e
G E
frequ ent
des ires
need ing
Y un
rif le
lo ver
' T
d ense
t Ã£o
not ified
id i
interact ing
rapp ort
ÐµÑĢ Ð¸
s ki
b esser
manufact urer
K yle
account able
S ak
P il
D omin
pres um
ÐĴÑģ Ðµ
vine gar
guarante ed
çľĭ åĪ°
hand led
éŁ ³
c at
civil ization
accom p
V M
Ã© mon
de ze
grad es
soll te
st aring
×Ĳ× ª
ar nt
horiz on
trav ail
h our
ç¬¬ ä¸Ģ
E D
D ak
n y
con ve
Ch am
fir ms
L iu
ÑģÑĤ ÑĢÐ°Ð½
li bert
lens es
int ake
Ð²Ñĭ Ð±
mens en
h el
pract ition
ãĤ ³
bed s
ancest ors
ìĹĦ ì²Ń
distur b
Last ly
Supp ort
à¸µ à¹ī
Cor ona
enthus i
ìĤ¬ëŀ Įë
5 2
b ird
redu ces
ìŀĪ ìĿĦ
G ene
ÄĻ p
Ãľ ber
concer ning
us er
concent rate
WH AT
ish op
onym ous
no ld
suggest ing
© °
F ish
.... ....
vess el
trabaj o
ãģ µ
O cean
å§ Ĳ
y g
town s
d el
terr ifying
Ã§al Ä±ÅŁ
s ino
e ats
ge z
g eme
ìĻ Ħ
comp art
implement ing
Pot ter
Germ ans
g ÅĤ
t ennis
car pet
au er
Saud i
ye ong
cur ry
Fore st
Ñĭ Ð»
fif teen
bol ts
¬ ´
sett lement
l ange
b am
G et
sw ap
K han
comm ence
quar antine
sc ored
ç ĸ
19 50
thick er
sÃ» r
åı £
Lar ry
all ez
ìĭľ ëĬĶ
g Ã¼
spect acular
b oth
st ats
å¦ ³
N ancy
bun u
cr ust
activ ated
ê·¸ë ŀ
out he
port s
ne ural
observ ations
vo it
ab an
áº£ i
¦¬ë ¥¼
om es
à¯ ĭ
qu i
kind ness
Ð ĳ
4 1
moder ate
ang els
T amb
Ã¨ t
ch lor
Bill y
ac on
select ing
Del ta
n ull
den ly
ci ud
tend ency
break down
m int
da wn
s pr
W ILL
Ã¤ch lich
pu ppy
7 00
à® ¤
fail s
Con c
rel atives
inv iting
aut onom
comp osed
dec is
access ories
C ass
b ist
T ip
ì§ ¸
p unt
r Ã¡p
éĢ ²
AN K
ãģ ļ
ex ist
compat ible
n er
a plic
b apt
fail ing
Tam am
os cill
letz ten
repeated ly
jung le
P ush
h ai
Î ·
dead ly
Ñı Ð¶
wi Äħ
Comm on
Î ķ
sk ate
Min i
hob by
áº§ n
rout es
am igos
con jun
partners hips
no vo
pou vez
br idge
pre oc
h im
tur b
so b
Sn ap
ì° ¸
min ute
tra ject
uj ÄĻ
e ager
regul atory
bank ing
b ling
ÑĪ ÑĮ
biz arre
it ated
d ire
threat ened
sh ining
n esse
cor ps
Ñģ Ñĥ
t eles
tem p
t em
fe ver
N ew
heav ier
S ah
b ud
out ros
ì° ¾
ëª ħ
arr ing
ê´ľ ì°®
N ap
se min
Th an
if s
des en
los es
B alt
k on
vo is
Mosc ow
ch airs
h is
refuge es
k g
k ole
į ¨
Ð°Ñģ Ð¸Ð±Ð¾
¦ ½
Un iverse
Dire ct
che ating
C in
pat ri
adv ise
N ether
prime iro
mention ing
n ut
ar Ä±
pet ite
b led
pens ar
ic io
IN D
veter an
lad der
consequ ence
B urn
r ug
M ade
g it
compet itors
prz ed
app arent
Argent ina
Work ing
collabor ate
w oman
ret ain
le urs
dash board
×Ļ× ĵ
Ear ly
B M
satisf ying
oft entimes
ma pping
Ã¼nk Ã¼
f old
launch ing
a ura
prec ision
work s
G od
stra p
Im per
r ivers
cu er
reg on
arri val
M iami
surviv ors
Sen ior
Dav id
est ado
se ctors
pop ping
ch im
ay Ä±
kun nen
gall ery
sun light
ese hen
ye lling
Me in
Pho enix
man o
histor ia
occur ring
æ¬ ¸
å¾ ħ
institution al
T ut
ç ²
sl aves
ãģ© ãģĨ
forg iveness
tw in
Hy un
K omm
sh ot
ss Ã¤
ÑĨ Ðµ
at ta
exp ense
G PU
P ast
rib ly
ëŃĲ ìķ¼
resp ir
æĿ ±
Que ens
s Ã©rie
pre f
pl ut
Over all
ãģ Ŀ
c ush
ring ing
incor rect
ÑģÑĤ ÑĢ
geomet ry
advert is
review ed
ãģĤ ãģĤ
do zens
determ ination
Ph ill
contrib uted
C it
pass engers
cÃ´t Ã©
re ver
techn ological
r aining
av i
sal ty
typ ing
ÑĤ Ðµ
t ilt
ì¹ ĺ
Ð¿ÑĢ ÑıÐ¼
r ou
ar at
åĪ «
HH HH
manufact urers
Ed ward
t uck
bl ows
ing o
Mar c
ìķĦ ìĦľ
M ich
Cle an
è ´
est o
P ack
sha ft
BRUN O
a ven
u ur
autom ated
vent ure
surve illance
G row
E mer
invest or
Y ok
l atter
function ing
Ham ilton
murder ed
anch or
c uc
SC P
Mad am
constra ints
b arn
ank en
ë§İ ìĿĢ
Mot or
Do ing
et ts
inst ructor
eg t
ak o
post ure
iv ia
Pol ish
color ful
el bow
par le
pass er
cond em
ort al
fert il
Ø§ Ø¯
Col omb
align ment
astron aut
M ut
sal mon
structure d
ŀ ×¨
click s
m iej
æĶ ¿
ãģĦ ãĤĦ
R ound
rain bow
ãģĶ ãģĸ
ì§ Ī
ot z
, </
Nico le
l ishing
wh ilst
rep ublic
tam am
vert ed
recogn izing
d ub
J os
fall s
ich i
Ð ¦
M itch
C R
cl ick
ãģĦ ãģ¦
stun ning
m ers
Po ly
dess a
ê³ łë
do ÄŁ
di ver
stri king
ap hor
ap enas
ous es
traged y
F an
Turk ish
pro phet
dist ancing
H em
cart oon
K e
ant ing
Cl ark
ç ¿
dav on
í ħ
y ummy
comprom ise
start up
r itt
cert ified
pill ow
b ere
segu ir
st adium
at ivo
simpl er
³ ¸
vis a
path way
nue vo
r ay
ãĥ Ĳ
é ľ
Ã¶ ÃŁ
celebr ity
ein es
G iven
A ra
J ob
y ak
Ar beit
ress ing
Ã¡ nd
grab bed
p end
s ine
ir k
F le
ich en
ç ¦
Ne il
èĻ Ł
repe ating
draw ings
r ise
gl itter
f ive
sur t
sich er
adjust ments
ipp i
c ke
represent atives
mid st
spo il
me ye
tag s
y ep
Stephan ie
R ud
ç ĭ
gr os
que ue
organ isation
end y
Te xt
Ã¼ yor
Ã Ń
conc lus
ì¤ Ģë
am p
L ess
c ano
P ix
ap ed
dar auf
u o
yn th
ab el
D one
d ick
ath on
h ilar
ac co
ìĨ į
O regon
We il
mathemat ics
al m
pix els
frÃ¥ n
he im
g os
For get
f end
Vo ilÃł
G reet
Î± ÏħÏĦ
rec ur
æĶ ¶
5 1
ìŀĪ ê³ł
A t
Ð¸ÑĤ Ð¸
off set
ro lling
en light
lim ited
Ð¸Ð»ÑĮ Ð½Ð¾
S ara
m art
J ump
ad orable
or se
che ering
emp athy
Ton ight
or p
Hun ter
P oint
pass enger
K night
seem ingly
h uh
the atre
to mb
dep ressed
sum mon
satisf action
do ors
Hou ston
Ð°Ñİ Ñī
R io
arr anged
hand les
tr illion
night mare
Qu ando
o le
Gu ide
oo o
b ile
em pez
cri bed
pro gression
Lin ux
ì²ĺ ìĿĮ
foss il
qu ero
ìĨ ¡
at iva
pu zz
Z us
ãĤ ª
thr illed
C B
min er
S AR
N os
cam b
ÑĤ Ð°
result ed
D ick
ou ng
com ics
abs olut
t ense
m us
Int ell
ÑįÑĤ Ñĥ
ph ases
vol ta
v Ã£o
b ound
And erson
curios ity
p ont
éĢĻ è£¡
demonst rated
ol ine
Spe ed
m ama
shock ing
k iedy
earthqu ake
impl ies
ent ers
ŀ Ģ
elev ator
delight ed
M itt
B ased
D ol
k en
worry ing
fil ed
ail and
mas c
Î ĳ
Jul ie
dim ensional
h uman
T ok
Ã ¿
un st
se ule
emb ar
íķ ©ëĭĪëĭ¤
ac ion
ë¶Ģë ¶Ħ
he ated
âĢ¦ âĢ¦
" !
real ise
ÐµÑĤ Ñĭ
ien ia
ie z
f Ã¼h
Es se
p s
d Ã³
as ters
on s
P M
ret ro
m aker
wh en
e lla
L iving
L am
tr ong
appro ve
Î¸ Î±
Rem ove
Ã¨ ne
ire n
str anger
v Ã¦
a fter
ot to
Ķë ¡ľ
A hora
m ill
IS H
gradu ating
k te
re nov
process ed
ke ys
en rich
ÅŁ ek
in sec
N an
ca kes
ill usion
ĺë ¥¼
a irl
im s
an ten
á»¯ ng
s n
prec isa
Ø§ÙĦ Ø¹
fore most
parag raph
av ais
man s
ÃŃ fic
b ot
Ø¹ ÙĨ
br oth
altern ate
Ch apter
ve ctors
es ar
indic ation
Ne in
¶ ģ
je ans
c ond
un ited
ab i
Ser ge
part ially
mac ro
æī į
å¼ µ
eth ical
ru it
shift ed
c abe
mathemat ical
r ude
×Ļ ×ķ×ª
M erc
gan ze
ic ion
unc onscious
bur nt
ÑĢ ÐµÐ±
char m
and al
oth y
H adi
appreci ation
EN D
¶ Ħëĵ¤
N ag
ł¤ ê³ł
La uren
v á»Ľi
Br idge
U mm
We g
cha que
S oph
g dzie
st er
B la
reflect s
bench mark
am ine
ãģ¡ ãĤĥ
contin ent
F DA
ì ¡°
×Ļ× Ĳ
å¼ Ģ
blo ody
N ine
iel t
em and
ë³´ ê³ł
tid ak
S cient
ple x
ost en
anim ated
ass a
der ived
Ð¸Ñģ ÑĤÐ¾ÑĢ
M ig
ìħ ĺ
r os
pl us
os aur
int ensive
glob ally
dif eren
ìĿ´ ê³ł
ä½ł çļĦ
Äħ d
d Ã©s
present ations
C ro
Bet ween
P a
n aw
à¸Ń à¸ĩ
bre ed
icht e
Build ing
con form
K id
n as
D ue
r Ã©s
d iox
B in
tax i
s ap
çĤº ä»Ģéº¼
center ed
sur ge
av ons
le arnt
Y am
Dies e
Be ij
W ill
attempt ed
gr ief
Ã³ j
kid ney
oppon ents
æĽ ´
n ome
ÑıÑĤ Ð½Ð¾
mid night
ac ity
on ed
pued es
problem atic
cop s
P ete
r int
unt ed
b ip
æ ¢
Ã Ģ
c ens
ative ly
ur gent
strugg led
ach us
microw ave
S ide
D enn
Ñı Ð²
ur ge
for cing
w ang
ÐºÐ¾ÑĤÐ¾ÑĢ Ð°Ñı
m amm
tri bes
Sh adow
S ang
Hit ler
l un
sc ent
ì§ ĳ
overwhel med
bom bs
cr imin
consol id
molec ular
×ķ× §
n or
perce ived
v Ã©
alt ogether
or th
z war
iz o
Å «
melt ed
ord en
Charl otte
Ex cel
art a
ìľ ł
G ew
rom ance
ere mos
colon ial
tradition ally
qu an
champions hip
arbit r
ìħ Ķ
self ish
ble w
ry ing
oper ators
juris d
ı ħ
u ition
E C
Any body
v ate
iet ies
analy st
´ì ĹĲ
Ð²Ñģ ÐµÐ³Ð´Ð°
K un
ag ing
Õ ¡
Mom ent
H ua
è ĥ
th en
est one
end e
award ed
nÃ¤ch sten
Sp ot
N eg
fair y
ä» £
Co ver
dep osit
stress ful
j unk
met abol
J a
undergrad uate
can cell
cons ensus
o so
éĩ ĳ
áº ·
ÄŁ er
r ada
Pal ace
ped al
ex agger
behavior al
play er
ll es
connect or
ske pt
įĶë Ŀ¼ê³ł
m itt
H aha
pe que
G ott
f ang
à °
kick ing
mount ed
repl acing
v os
quiet ly
mil it
own s
nive au
a ur
Bu y
predict ed
c ows
pon er
D ri
remark s
rep orter
ark adaÅŁ
sa ves
Ã§ oc
met aphor
K el
st ation
semb ly
advis or
works hops
account ing
to k
n ier
in ner
bur ada
Olymp ic
P ract
Chr ist
Ñģ Ñİ
view ed
mark ers
f oto
get ic
Luc as
p ads
J oh
CD U
aff en
are m
Be ck
G osh
sh it
ãģĮ ãģ¨ãģĨ
M ater
abul ary
Ro om
ll en
Follow ing
do it
ball s
ix a
ground s
ìŀĪ ëĬĶëį°
wild life
sh ifts
ä¸Ģ é»ŀ
B ook
host ed
ll or
sn aps
bes oin
pean ut
Ã¤ ft
¹ ł
ÅĽ l
Barb ara
adopt ion
Ð¾Ñģ Ð½Ð¾Ð²
ard a
exp ose
ì ¦
j as
Ä ĵ
count less
ì§ ģ
he alth
u ent
is o
ot ion
hung er
mo is
claim ing
Î ļ
Bel g
ê¸°ë ıĦ
un pre
g ed
I o
Ð¿Ð¾Ñģ Ð¼Ð¾ÑĤÑĢ
co ÅĽ
N arrator
Ãĩ ok
íĻ ©
à¸Ń à¸¢
ci pl
tim er
def ic
av in
categ or
thr ows
Ð¿Ð¾Ñģ Ð»ÐµÐ´
Th ai
mas cul
bek ommen
intern ation
ul se
a ye
po i
pix el
Chr is
st ove
gener ator
ì» ¬ë
acad em
pract iced
aqu est
contrib uting
I g
cont aining
wrest ling
Ñĩ ÐµÐ³Ð¾
h aupt
ess as
vel ope
except ional
App lause
ric ane
conven ience
En viron
8 5
c Ã¢
ìķĪëħķ íķĺìĦ¸ìļĶ
M O
P ope
s ah
ob i
mas ters
ain es
bless ings
o bey
fl ux
br ow
ìĭ ¤
popular ity
L amb
ze ug
ìĻ Ķ
ıĦ ë¡Ŀ
itu ation
accom pan
dial og
åĬł æ²¹
se wing
ble eding
b ail
thread s
od ge
Sh ang
deploy ment
ch ed
satisf y
la z
miss ile
Link ed
mak ers
ci um
f re
ë¨ ¼
ë¬ ´ë
Ed ge
societ ies
syn chron
¡ ł
un ft
un m
tri ang
in just
t op
or al
k or
ld igt
ce ÄŁ
qu et
Le o
sa voir
eas tern
ie u
exp ed
unnecess ary
Per form
M ing
ÑĢ Ð°Ð²
intent ions
comp ression
S ac
Î¿ Î»
ars on
trou ve
Muh ammad
Ð²Ñĭ Ñģ
fin ite
ug a
celebr ated
conf ess
squ ares
G ordon
ëĤĺ ìĺ
synd rome
complet ion
back ing
dar f
Q uran
intermedi ate
k er
d Ã¼
hes ive
account ability
Re becca
èĳ Ĺ
S leep
diffÃ© rent
ol s
R ice
ë³ ¸
antib iot
ÏĦ Î¬
r z
amb ling
sensit ivity
ch ron
all as
6 4
fle et
optim istic
a illeurs
En ough
sen in
pack s
b n
Are a
T ro
¨ë ¦¬
Th om
harm ony
som eday
IS E
Broad way
la res
ern ess
à¹Ħ à¸¡
T enn
NAT O
ãĤĬ ãģ¾ãģĻ
minut os
K ansas
M ong
compt e
åĽ Ľ
Ĭ ¤
ìĹ Ń
super hero
Gard en
M os
attach ment
b ust
à¯ Ĭ
Th ailand
st at
sp ice
Le b
le ap
ze ch
G L
ver l
fix ing
ë³´ë ©´
por n
b Ã¼y
Ùħ Ø§
V irt
T ommy
car go
Ol ha
ro ku
Ùĥ ÙĨ
bak ed
tact ics
market place
ktÃ³ ra
ar lo
switch es
c ache
H R
G an
G PS
du as
her es
ÐµÑĢ ÑĪ
tr ack
St ation
igg les
camp ing
åĵ ĩ
complet ing
am as
prot otype
Jud ge
oty pes
infect ions
ł ¤ë
ÐµÑĢ Ð³
ob a
B od
Second ly
ap ost
so gar
re ass
ie k
æĸ ¼
ash amed
cur ves
at ur
phot ographer
eight h
was ted
ç® Ĺ
d amp
are na
intern ally
he els
S alt
bl ir
Īë Ĥĺ
contr ary
prim a
os s
rab bit
aut or
broad ly
ÃŃ st
back s
íĶ Ħ
et o
j ury
è ±
prost u
bar a
par liament
or ient
ind irect
Ã¡ m
Ã¥ r
tra its
d ÃŃas
C T
aly st
li vest
k os
M ay
J ing
journal ists
Ñĩ Ð¸Ðº
ar ms
ê°Ĳ ìĤ¬
Ã© gal
New ton
recover ed
bra uchen
Br on
p ale
pr ises
hor as
ch ts
éĢ ļ
Ã¿ Ã¿
ak ers
Al aska
zie j
sc oop
ìĿ´ ê°Ģ
ãģķ ãģĦ
c or
sur g
v iene
Kr ist
b anned
smooth ly
treat s
pron ounce
fl ush
cam bi
music ian
Ash ley
SP D
Bob by
gl oss
res pect
review ing
gener ic
Æ°á»Ľ c
ats Ã¤chlich
health ier
ub ers
Medic are
complain ts
j ac
agric ultural
S pe
J ong
diox ide
ê² ¨
el ijk
Sh it
ain ts
I an
Sim ply
St re
æľ ĭ
G DP
as z
Kat ie
pe ek
owy ch
res ort
res idence
sp ices
ci Ã³
jed er
ar ium
p uff
ë§ ī
ÑĥÐ»ÑĮ ÑĤ
met a
optim ization
g ang
íķ Ħ
efficient ly
vis ually
fr ost
achie ving
rot ating
occup ied
å¼ Ł
ment ation
stretch ing
st all
ost ic
S ever
gl uc
rÃ³ Å¼
out reach
st ra
ik en
ìĸĺ ê¸°
Jo in
im pe
compens ation
T at
Car los
Ã¼hr t
Franc is
c ji
ye ah
membr ane
ex hale
rel i
O R
refriger ator
V enez
L ike
rais es
ott le
at ura
rul er
we er
gu ided
M agn
Cor por
į Ķ
attrib ute
Wo ah
arr ows
aw ait
Pr im
dign ity
Ont ario
isch er
ìĭ Ŀ
im en
ou ver
AS S
á»ĩ n
op y
achus etts
elder ly
åİ Ł
Da ily
sh ine
5 6
è ¢
ier no
skill ed
gro ÃŁe
O ak
ç¬¬ äºĮ
igg le
bir az
argu ing
dr ift
h arness
deix ar
aut re
See ing
capital ism
E ld
z ione
Be yond
perfect ion
decl are
× ¡
fight ers
ê²ł ëĭ¤
Ð¾ÑĢ Ð¾Ð²
according ly
Is a
optim ize
Min istry
sa ge
ìĭľë ©´
ben i
don ation
cle ared
Luck ily
harm ful
µ ì»¤
c ement
ded i
Cra ig
dem ons
custom ize
ign ored
T ian
hop ed
B ureau
r i
Y ah
so cket
feat uring
par f
T E
Te acher
catal og
Se ite
con e
Palest in
gew oon
g aining
Ø ¢
cat ast
neighb our
IS T
ste aling
tro is
Sh oot
p ione
Int el
L IN
bright er
Y esterday
s ow
s in
od s
eth ics
interview ed
re ll
refres hing
s Ã¥
abs urd
ph osph
f il
ste hen
v als
care d
æĪ ĸ
de ll
b one
ho ch
p up
i o
aconte ce
S pl
ig i
t Ã¤n
ele phant
g ates
slic es
pr ank
ok rat
hilar ious
S id
ëĴ ¤
ess ere
tele phone
in ally
r ator
helicop ter
iÅŁ te
g id
tour ist
conflict s
Ð°ÑĤ Ð°
t Ã©
ass ert
laund ry
B om
special ized
Mod ern
og raf
an o
ret rie
Put in
H AR
Î± ÏĢÏĮ
tut ti
ìĸ µ
B ul
ëĭ¤ë ©´
ÅĤ e
æľĭ åıĭ
ar in
therap ist
g Ã¥r
C zy
pp e
m ir
T erm
Be ar
More over
Dis c
tit led
stri ps
F ahr
R ing
rand o
af a
èº «
short s
tr unk
sent ido
Ïī Î½
ac res
over d
Olymp ics
åı «
Mer ci
ëĤĺ ìĺ¤
g erm
am med
pre gunt
N ut
< /
travel s
voc abulary
et en
od er
consum ing
wr iting
è¶ ħ
appe aring
adjust ed
se m
f rente
maxim ize
c onscious
z ek
è°¢ è°¢
ha o
ì²ĺë Ł¼
Ep isode
vis ibility
m ijn
viel en
Br others
×Ļ× ĳ
vÃ¤ ldigt
crush ed
uf en
ä½ł åĢĳ
act ic
B ed
F A
iss ippi
rem ot
p ets
th under
M am
ìķ µì»¤
p arents
b Ä±
surt out
seg ments
ne hmen
util iz
Rub y
r á»ĵi
happ ily
bus h
ult an
çİ ©
Ø ¸
H il
la wn
eyebr ows
Sy d
re p
in f
éł Ń
over head
cz nie
ox id
W ol
destro ying
Add itionally
umb led
d ep
dep os
comm od
c akes
tal ents
pour quoi
cont empl
n els
Arab ic
Mary land
çİ ĭ
ow o
P la
ÄŁl um
prop he
Rep resent
op ol
acc ord
Me aning
joint s
bra kes
ck t
199 9
public ation
Re view
n iche
signific a
de br
overl ap
demand ing
S Ã³
subsequ ent
quot es
Current ly
prevent ing
C el
on n
wnie Å¼
ìķ ½
AC H
g um
Israel i
ìľ¼ ëĭĪê¹Į
å ¨
ru kt
cl apping
Mass achusetts
resil ience
subscri bing
jewel ry
ge bra
cor rection
Ø ¦
l io
s am
en velope
k al
F arm
c attle
rep ent
t ones
os ion
pe ction
den en
È Ľi
Mar g
acqu ire
ibl ings
as pir
al c
vib ration
t il
em in
correl ation
sing ular
chap ters
mb re
aud ition
Ã§ as
v amp
t es
respect ed
c in
fuck in
Ã¼ber haupt
al ike
¶ Ī
ro bi
Ã® t
T ouch
an za
firm ly
Greet ings
sc ale
d ad
back yard
G r
Ð¾ÑĢ ÑĤ
hÃ¤t te
First ly
O ften
as ures
draw s
red it
AT E
P e
compe lling
subs id
neighborhood s
dipl om
ent ender
per ing
a ug
ch at
Do ll
ìł Ĳ
h ose
n ar
reward ing
So ld
tak i
bl ades
K ath
jog o
sens ation
u ana
p el
Recent ly
poly mer
-- -
ho ver
rul ed
æµ ·
×Ķ× Ĳ×
affect ion
Äĳ á»ĥ
b ree
ç§ ģ
L ay
Y ong
rece iver
ľë ¥¼
dis so
Q ing
m Ãºsica
aest hetic
B reat
T A
accur ately
? âĢĭ
w ages
rawd ÄĻ
sw allow
compl aint
li ed
bec ue
relax ing
Pok Ã©mon
te cn
b ang
³ ´ì
qu ien
habit at
.... ..
ab ling
bes ond
employ ed
arri ves
vess els
A x
display s
1 50
olog ie
ìĹ Ĳ
cl o
v uel
èĬ ±
w end
sl ipp
ur p
L ot
bull ets
r age
sk irt
ient es
nh á»¯ng
Nat ural
work load
m u
sun set
p it
åį ģ
ë¶ Ħëĵ¤
down stairs
é Ń
count ed
n az
×ķ× ¤
Philipp ines
11 0
Park er
g itu
inter es
um bre
N ature
j er
en os
panel ists
co ating
ch erry
P ent
M ist
reg ation
v ind
Cor ps
M ission
no ble
fon ction
warri or
prot ests
our i
constitution al
ÅĤ am
emer ged
d ye
Try ing
ig m
ä¸Ģ ä¸ª
L O
V erm
er ving
T IM
C i
free zer
grup o
Sp orts
Ð¿ÑĢ Ð¾Ð³
ÙĦ Ø§
other ap
iff any
b ian
rank ed
propos als
Äĳ Ã¢y
free zing
insect s
v il
comp ost
çİ °
se mana
distingu ish
facil itate
plus ieurs
ver g
algun s
Tik Tok
Ex press
S U
int imate
Aut hor
witness es
kal au
argu ed
avo iding
ct ive
purs uing
sy ll
Ã¡ vel
Atl anta
Ut ah
T ill
er f
20 22
Ã¤ ter
fun eral
Fl ash
Atl antic
ge le
ì¦ Ī
mort gage
ëĦ ĺ
lic ht
amb itious
Beij ing
d iving
un box
ill as
ot ras
ev ac
mar ine
Cre ate
g j
frequ encies
ing ton
Rom ans
aim ing
B uff
em peror
Mo i
prom ising
ãģ ľ
alg uma
pas a
dis orders
succeed ed
cuer po
sod ium
st ub
he iro
delay ed
et era
t w
syn c
h d
tour ists
sy st
m Ã©t
qual ify
O thers
ll ers
Ð°ÑĤÐµÐ»ÑĮ Ð½Ð¾
perce ive
ê² Ģ
ê°Ģ ìŀ¥
M atter
Bl uetooth
pe arl
ar ise
mon ument
ag i
r ho
sm arter
con j
ke en
T reat
pack et
els ius
Al ab
p si
enjoy able
Ell en
elimin ated
R ow
zomb ie
K u
phr ases
ut er
dire kt
en en
Ä °
G h
cor rid
que er
L inda
on a
oblig ation
d ar
Ø µ
em ment
ac ies
screw ed
n ak
ay ud
ä¸ Ķ
le z
dr own
Medic ine
lab s
jus qu
G onna
terror ist
qu est
far ther
repl ied
S W
Miss issippi
ish na
re ign
accept ance
u l
¶ Į
Hot el
Co oper
t an
G rab
v apor
act ed
K ang
f an
ìĿ´ì ĥģ
çĶļ éº¼
ut et
word t
far ms
d at
cou ples
be ads
ient os
Th en
ä¿ Ĥ
os ity
Stan ford
. -
W ait
dat as
o ire
hasht ag
im me
encounter ed
shout ing
resist ant
Se ung
tra gic
D raw
, ,
show case
St ri
back ed
Co le
e urs
esca ped
AS T
As sembly
stick er
mie ux
entertain ing
D ON
Am end
K arl
in hib
s st
ie g
~~ ~
hook ed
liter al
sun ny
st eps
ë° ľë
Mar ine
su e
prison ers
E b
dr ums
gu ilt
al g
happ ier
C M
ìķĦëĭĪ ìķ¼
Ñĥ Ð»Ñı
key word
Par ce
Fore ign
Am anda
ç¥ ŀ
ëª ©
pl ess
Ī ¬
Ã³ mo
qual quer
ìĿ´ë Ŀ¼ê³ł
conspir acy
straw berry
hat ten
E s
sp os
vill ages
Ñģ ÑĢÐµÐ´
w aking
calcul ations
Ùħ Ø¹
pour ing
leb ih
pol ish
T out
fun ktion
T i
was ting
ist ically
manip ulate
simpl ify
team mates
cont am
Qu ite
kur z
C and
ty pe
outhe ast
finan cially
els on
fore head
u age
na udible
Beh ind
negoti ations
ë§Ī ìĿĮ
altern atives
r ank
hold er
æĩ ī
he aled
Spe c
ä» ¶
ä»ĸ åĢĳ
exhib it
shall ow
go b
ë ľ
frust ration
ÃŃ o
mel ting
St orm
pat ent
Bar cel
ped est
ÙĪ Ùħ
t ai
M ode
w il
ëª¨ë ¥´
Ã©gal ement
éĤ£ éº¼
×Ĳ× Ĺ
ay an
am azed
ì§Ģ ëĬĶ
ha ciendo
ìĿ´ì ķ¼
Î» Î±
à¸ Ĥ
ÐµÑĤ Ð°
exam s
trave lling
P ress
bas eline
bus es
rein for
ven ant
Tr uth
Ŀ ½
ye ll
saus age
Ev il
me iner
×Ļ× §
hope ful
rÃ³ wnieÅ¼
Per Ã²
t wo
nd er
cons cience
War ren
ick y
aim ed
gÃ¶ ra
X T
py ram
R ed
éĽ »
at u
Est a
earning s
h ats
St adt
ick et
point s
in ander
motor cycle
ëı Į
k om
D ing
æ Ĵ
rec urs
estim ates
der ni
vers ch
ãģĿ ãģ®
M IC
d ost
w iel
s iblings
ear liest
fat igue
n hi
gust a
bon ne
æľĢ å¾Į
f rom
supposed ly
int age
count ies
un re
plant ing
Gr ac
Gen esis
Al pha
ys z
t ile
ê²½ ìļ°
×Ļ ×©
qu el
distrib ute
de f
Ã© ral
cl utch
adel ph
Play Station
Ħ ¸
s j
bre aking
ëĲ ĺë
C uba
Russ ians
MAR K
per se
restrict ed
ig es
Tra vel
electron ics
quar ters
Ke ith
s ized
dead line
aren th
vÃŃde os
protocol s
am ment
Tra ining
Ã ¢
sequ el
ke inen
matt ress
lud ing
class ified
react or
K ont
pass ar
hon our
or ig
IN A
t Ä±r
exclus ively
sh ades
occas ions
ij a
çļĦ æĻĤåĢĻ
åİ ²
æħ ¢
f ig
t us
rem em
Christ opher
sl ime
alg una
F ortunately
l ors
v oll
a ver
out let
Linked In
Exec utive
org ans
Be gin
íĻ Ķ
trans plant
ra gen
V O
F Ã¶r
Ø¨ Ø§ÙĦ
And re
is ine
last s
hist Ã³ria
l uz
coll ar
kid na
opt ical
io v
to b
ex terior
met ric
ie ur
t roll
ÑĢ Ð¾Ð·
æĺ Ł
t Ã´
ìĺĪ ìģ
Ges etz
denomin ator
åħ ī
gr Ã¶ÃŁ
é¡ ĺ
L uther
rest e
rese mb
perm et
ks i
f isher
ãģŁ ãģĦ
V on
íĶ ¼
Ïĥ ÏĦÎ¿
sho ots
kam u
K er
O bs
çĿ Ģ
b ili
ë° ±
tort ure
ass y
å¥½ çļĦ
tien es
rece ives
Osc ar
remember ing
problem as
åĺ Ľ
memor able
jour s
fa Ã§on
am ic
ë´ ¤
at ique
ëŃ Ķê°Ģ
h alt
fr ies
find en
g ra
ÑĢÑĥ Ð´
im port
i ki
compl aining
faz endo
go ogle
tab s
ëĵ¤ ìĸ´ì
ãĤ ¦
ug o
ier to
au fen
ë¨¼ ìłĢ
skull e
su iv
sp y
K ai
éĤ£ åĢĭ
mart ial
on der
èª °
at ility
irgend wie
cl ap
int ell
install ing
un iqu
Cent re
ast s
u ar
rev is
threat ening
ra is
cu id
s ka
resol ved
r ides
fail ures
se mb
mal es
U FF
å¾Ī å¤ļ
tr Ãªs
app ed
newsp apers
ri et
applaud s
Ð ĵ
ãģ ¯
N C
åį ĥ
æĻĤ éĸĵ
h eter
haz ard
r y
strict ly
5 4
ëĵ¤ìĸ´ ê°Ģ
sp ont
t atsÃ¤chlich
ë§Ĳ ìĶ
la ub
absor bed
acaÄŁ Ä±z
on u
explicit ly
ìŀ ¬
Fut ure
acht en
Ãł o
y on
ser ia
Her ren
ce j
Al bert
ìĿ´ ëĬĶ
ect or
pack ing
virt ue
y az
log s
Phot oshop
s id
l ings
remot ely
D ifferent
oper ated
light s
disc rimin
ist ance
G RE
pl ac
just ify
trabal ho
ut il
v oc
qu art
Î ¤
S C
S R
hes itate
èĩ ³
J o
sou vent
Ang ela
esse e
adelph ia
ark s
kann st
åĤ Ļ
ê·¸ëŁ¬ ëĭĪê¹Į
plut Ã´t
Comm ander
summar ize
à¯ Ģ
ãģ ĩ
develop ments
C ost
theoret ical
o re
met all
Î¿Ïħ Î½
f ahr
adapt ed
Ok lah
Nether lands
po et
k at
we ars
ç ¯
ìĸ´ë ĶĶ
Est o
laugh ed
don ner
ë į°
K ick
Det roit
bicy cle
lack ing
ph abet
K end
A ss
reve als
Î ł
No ah
¦¬ ëĬĶ
sell s
Alab ama
terr ific
E lement
í Ĩ
tur bo
H om
theore m
advent ures
purch asing
T Ã¡
ve mos
d uties
wen ig
bo oth
ent rar
V A
ge ars
Ja e
Ã¨ n
cal cium
Rober ts
rib bon
la v
inter ventions
Ult ra
nam ely
adequ ate
re cap
do ck
f ting
vo i
consult ation
pod em
poss ession
cl ues
Rus sell
renew able
åİ² å®³
Ñĥ Ð·
in formation
igg ers
W ith
wn o
elabor ate
ctor al
D ow
ram en
æı Ĳ
á» ķ
er ste
Z el
ãĥ Ĺ
qu asi
ç§ Ĵ
St ars
tri bal
se ated
ch ol
Ã¤m Ã¤
out break
c res
unser er
í ĳľ
under water
ass ure
OO D
nap rawdÄĻ
establish ment
inc on
difer ente
ex cus
D im
L ing
ro log
ãģ ¾
out doors
na j
epid emic
un ters
Gab riel
ìĹĨ ëĬĶ
enc l
O der
F oot
p as
Z uk
åĵ ¡
work flow
un p
all iance
ens chaft
yog urt
er u
f iz
äº Ķ
ap rend
cual quier
carr ots
Ä±n Ä±n
af ood
flo ors
key words
sp otted
dr ank
par as
Ãºlt imo
hab lar
prose cut
ìĹĲ ëıĦ
éĸĭ å§ĭ
Ã© p
stick ers
push es
k h
rest art
Th under
á» Ŀi
muit a
fo x
arde ÅŁ
Z ach
Mine craft
ç ¸
== ==
gÃ¶ re
st ance
ig ung
Ùİ Ùĳ
k Ã¤
teaching s
é Ĩ
dec ay
r ic
om ena
Ð²Ñģ ÐµÐ¼
ch ten
V ert
íķľ êµŃ
¬ ´ë
co c
: )
ke iten
B A
eth eless
head quarters
sp ike
B ase
coordin ates
t ard
bo iled
Mon ster
note book
ê´ Ģ
W ake
Set ting
ìĿ´ì Ĺ
Syd ney
Fin n
lob by
å¾ ŀ
sen iors
av an
tra ff
th ink
sl ap
Cast le
© ng
algun os
Person ally
Gener ally
P el
di as
evol ving
it ol
ple in
fl ights
ele ven
owe j
á»ĳ ng
a ku
gl ance
connect ivity
bal d
Ñĭ Ñĩ
int est
Ã¡ g
GR Ãľ
ibl ical
P apa
p ity
f aint
wur den
leg ally
pre y
Sci ences
Ð¿ÑĢ Ð¾Ñģ
train er
probl Ã¨me
kil o
brid ges
last ed
eleg ant
pal ab
direct ory
ä¸į æľĥ
bul b
pe ople
ge b
6 6
Tenn essee
ah len
ie val
ca ut
Dam en
pl o
ian e
att an
Ø§ÙĦ Ø³
risk y
slee ve
inc idents
C o
applic able
imper ial
Phil ip
Ye a
ÐµÑĢ Ð¾
Ã¼ ne
ìĺ Ģ
H ub
t or
sig u
c end
polit ically
p ars
prime ira
Sh ah
sat ur
comb ust
promot ed
ì£ ¼ë
æĢ ķ
templ ates
ÑĤ ÐµÑĢ
sl iding
ced ented
ãģ ®
child ren
M R
We i
b Ã¶r
æĹ ©
prÃ³xim o
ar ÃŃa
sam pling
es i
Dan ielle
Oklah oma
è ħ
çķ Į
ÐµÑģ Ð¿
DV D
Ð²Ñĭ Ð¿
r ous
c ons
enhan ced
éĽ £
past or
Sud denly
è® ĵ
f ar
N g
1 000
che w
rum ors
A na
ann Ã©es
Ñĥ ÑģÑĤ
Phil adelphia
åĹ ¯
effect iveness
è¿Ļ æł·
Ã©t Ã©
d ing
relig ions
ag ed
zie Äĩ
R ic
P age
s Ã¼
nÃ¤m lich
man kind
rest ing
influ ences
Sch ul
man a
consum ed
P om
ç¾İ åľĭ
consegu ir
Thanks giving
Hind u
la is
th rive
cont our
fal ando
J Ã¡
z an
Ð¸ÑĤ Ñĥ
ip her
j amin
Hall o
16 0
met e
ìķ Įë
Barcel ona
let ter
å Ļ
ad emÃ¡s
coord ination
un ts
sl op
Ð¿ÑĢ Ð¸Ð´
ì§Ģ ë§ī
question ing
dies el
de j
aff irm
įĶëĿ¼ê³ł ìļĶ
ien ne
cr ank
predict ions
phys i
ch sel
comb inations
ex cellence
éĢĻ éº¼
á» Ŀ
wid th
we ed
Ħë ¥¼
Ħë §Ī
al to
da iry
Norm al
pp en
devast ating
po z
H us
m az
warn ed
den k
A uss
trad es
he ll
prim ero
Ø¨ ÙĬ
kick s
a ÄŁ
M Ã¼
l uc
Stand ard
r ice
C ub
g ou
Jo Ã£o
Ñĥ ÑģÐº
en qu
£ Į
ge w
íģ °
ow ania
ian i
f akt
Ñı Ð½Ð¸
be f
thumb na
ce ux
æŃ¡ è¿İ
app le
N EN
g ad
ap on
Fant astic
concent rated
g irl
l ene
Ã© ta
a an
out ta
nar c
B ody
br ush
legisl ative
Meg an
mist aken
Miss ouri
label ed
Ð»Ñı ÐµÑĤÑģÑı
real ised
y orsun
ãģĤãĤĬ ãģĮãģ¨ãģĨ
Saf ety
acceler ate
san ctions
j uego
pe ppers
ell ow
cin co
Ñģ Ð¸ÑģÑĤ
co very
gr am
Ã© po
BM W
iv ol
Ch em
çļĦ è©±
use ment
Supp ose
ê°Ģ ì§Ģê³ł
mill enn
T un
med al
ha cia
stimul us
bright ness
a ient
H ands
in et
coal ition
åŃ ¸
ris es
r ina
sc oot
def ending
in vers
h ills
fulf illed
åĪ° äºĨ
ll ie
ad oles
Ch ase
åĸľ æŃ¡
J J
ne uen
T ru
inher it
sixt y
Ex p
Cl ay
Ð¾Ñģ Ð¾Ð±
ar na
Imper ial
ÑįÑĤ Ð°
so cially
at y
ody nam
rib s
om ic
T ol
199 8
fr am
rank s
Col on
accommod ate
expl ode
íĦ °ë
HA EL
H art
æ ¡
del icate
ł ×Ĺ
to fu
achieve ments
S or
agre ements
5 7
t amp
fr anÃ§ais
her bs
c orn
kon k
AN A
Q i
prÃ³ p
t iger
ëĳ ĺ
Äĥ m
app rent
ah an
rul ing
t sp
tw itter
teen ager
b us
í Ĵ
Amend ment
t apping
AP Is
åł ´
match ed
ë ©´
Beaut y
inevit able
g ases
h igh
O pt
pred omin
Ïģ ÏĮ
tub es
A a
omet own
I M
des ar
Ã¤ ren
M Ã¶glich
rent al
íķ¨ ê»ĺ
D iana
aut ism
Pu erto
Ä± ld
fal an
dream ing
g ute
w reck
storyt elling
Leg end
Uk rain
S K
íĸ ī
ÅĽ wi
Bel ieve
most rar
Tod d
N iger
ic ting
h ard
: //
ir able
ig ation
Mem bers
ìłľ íĴĪ
disc our
Ł ½
ri ka
D N
F if
Cap ital
ÑĢ Ð¾Ð¼
S ans
y un
pil ots
tr at
n yt
expon ential
emer ge
traject ory
Ð¿Ð¾Ñĩ ÐµÐ¼Ñĥ
se aled
att i
w ides
ian ces
witness ed
O r
os i
Jo el
on al
èģ ½
Int e
ced es
Got ta
an ium
fem ales
Leb ens
moist ur
Sim ple
Do ch
ar Ã¡
g esehen
US T
Æ¡ i
class ification
diagon al
perm ett
com p
Ø§ÙĦ ØŃ
Mal ays
geh Ã¶rt
pop ped
contact ed
14 0
adapt ation
man us
tur key
pre ach
br ight
down s
unpre cedented
might y
c ater
itt i
g s
Dep uty
wr ite
B less
Ã¡ c
sum mit
ëı¼ ìļĶ
thought ful
sh red
s inging
Ð»ÑĥÑĩ ÑĪÐµ
y en
vibr ant
Wal ter
host s
amb ul
inv asion
og an
reason ing
su cc
fal a
k ings
go in
cal ib
GRÃľ NEN
ot er
ein z
ins ulin
Ĭ ¨
sc aling
C orn
hy d
mat te
P L
ali ens
Se g
è¯ Ŀ
est i
ast ics
war mer
ing en
M L
ro de
E ye
be its
B arn
Ch uck
profit able
ugu ese
Arab ia
co co
pued o
inflamm ation
cl ip
tables poons
Sw ed
an at
ar rib
dan cer
Car ter
magn ific
st ore
éģ ¸
f ade
accomp any
w ahr
ye ast
min eral
legisl ature
ä½ ı
ir os
crowd ed
oc ado
ìĸ´ì ķ¼
Bar ry
m aster
nick name
" ...
R s
Mo ore
ãĥ ¡
li hood
A gency
m arsh
incorpor ated
ant wort
kim chi
w oo
distract ed
er ies
inform aciÃ³n
Cho ose
J adi
anal ogy
s ay
uff le
ac ids
acquis ition
vari ants
èµ· ä¾Ĩ
pass iert
ìĿ´ë Ĥĺ
ruct ive
ep her
p H
ut lich
å· ®
rel ie
u ite
re ception
co h
Pre p
anticip ate
æĢ §
ke e
design ated
Ñı ÑĤÐ¸
K or
An im
Ã¼h l
Wh it
un cover
May a
ÑĤ Ð¾Ð³Ð´Ð°
° ķ
uten ant
ìĸ ¼ë
forest s
mem e
distingu ished
Mar x
L ion
serv ants
D iam
çķ¶ çĦ¶
Pol icy
į ¼
trigger ed
abil ir
negoti ate
fe z
er w
var ies
j emand
dis charge
ÑģÑı Ñĩ
P AR
Aff airs
vot er
at en
cro is
ob il
O ops
Ar c
He ather
ank a
sim ples
Î¿ Î½
" >
ch ords
Sand ers
ë¶ Ħë
B en
dar Ã¼ber
ili ans
order ing
Man h
kil ogram
kar ÅŁ
gr asp
ghost s
al en
J edi
download ed
conduct ing
H ak
research er
il an
go od
H annah
dÃ¼ÅŁ Ã¼n
Mess iah
u ity
ion a
prob able
Y E
independ ently
buff er
b urn
our d
Mc K
l ingu
uj emy
ÐµÑĢ ÑĤ
intuit ive
crack s
app ropri
nt y
ge en
l end
cert ification
ID S
un ter
pe es
tr ump
bank rupt
fe as
è Ĺ
du Å¼
æ¸ ħ
virus es
5 8
g od
I nd
ach i
C F
C ond
san ct
cont en
fre ed
R T
ment ors
ì¡ ±
port able
Paul o
r ane
HA HA
S ection
ç Ĩ
hy un
ÎŃ Ïĩ
P ub
Ind epend
comp ounds
mess aging
ded ication
not icing
devot ed
ÑİÑĤ ÑģÑı
sn akes
battle field
p ers
del a
ha i
ill Ã¤
Ã©r er
e very
respons ive
×Ļ ×ķ
op f
é ī
Ĭ ¸
Be cause
tour ism
ê·¸ ê²Į
×ķ× ¦
can s
st Ã¼t
don ne
D ios
U ber
act ory
H erm
pat ron
ur f
be i
program a
Oh h
gen er
f ist
W endy
and a
guess ed
fre ak
ä¸Ń åľĭ
K ings
ch ool
off line
Indian a
All iance
5 3
partic ul
F ocus
inhab it
ê°ĻìĿĢ ëį°
Mc G
ows ki
ìĿ´ ê±´
pa ÅĦst
itt a
confirm ation
Brook lyn
nood le
f und
it ud
grand parents
bar becue
ÎµÎ¹ ÏĤ
ball ot
V eter
pip es
ig ious
G raph
est ed
ë¸ Įë
K E
ãģ¡ãĤĩ ãģ£ãģ¨
e ins
hat red
ãģĳ ãģ©
d ang
ee ee
arch ae
Jes se
detect ed
sen i
burg h
displ acement
do p
condition ing
distur bing
P H
thin ner
wound ed
Cu ando
cush ion
wh ites
prefer ences
ì¤Ģë ¹Ħ
ka Å¼
G ate
P ath
d les
à¸Ħ à¸£
im ore
ë³´ìĹ ¬
discipl ines
á» ı
mes ma
ìĥ Īë
ìĭ ¬
g ing
umbre lla
IGH T
p ension
comb ining
S S
rect angle
á»ĩ t
pro xim
C ow
¸ Į
intention al
æķ Ļ
dec id
U ma
ias m
b uz
debr is
c ass
P rop
is ka
ë ł¥
ester ol
uss ian
ìĿ´ë ŀĳ
un limited
adm ire
tight ly
gen ome
Jun ior
ven ir
g us
c Äĥ
V lad
í Ĥ
rel ativ
in ci
aun que
Bo ys
Sw iss
phys icians
íı ī
P ET
w ounds
ab out
Ãł i
on z
ur ities
å· ¦
ment ality
vari ance
seg unda
vol cano
al ie
à¥ ĩ
t iles
T erry
Ø§ÙĦÙĦ Ùĩ
can on
sc attered
pt on
defin itions
al gebra
ot en
ab lo
ij uana
wra pping
ses ame
Ð½Ð°Ñĩ Ð¸Ð½Ð°
Al f
or no
an kle
special ty
attempt ing
ili ation
19 20
phen omena
Pro duct
B uck
A ww
se en
vo id
Frank lin
advoc acy
S ep
cool est
Ñģ ÑĢÐ°Ð·Ñĥ
Qu and
Tr ad
d ies
has h
æĪĳ å°±
ä¹Ł æĺ¯
pot s
sad ly
vi able
T iger
ON E
neur ons
ow anie
Ä Ĺ
Sh ar
Land es
confer ences
è© ²
cred ential
ine e
x it
p ay
inc ons
>> :
èª į
í ŀĺë
less er
sp ill
prem ise
36 5
tom ar
ë ²Ī
What s
light weight
M ap
f ia
ells chaft
vend ors
uest o
M ister
åı ³
h ma
intention ally
T ang
éĹ ®
ident ification
etc etera
N ee
ÑĤ ÑĢÐ¸
ê· ¸
crypt ocur
in hale
add ict
åĲĦ ä½į
ma u
ë² Ħ
comp rar
ied zieÄĩ
Ð¾ÑĤ Ð½Ð¾
begin ner
obs c
lim iting
asc ular
ins pection
ac i
re jo
M us
z aten
sz cz
Mad rid
var ieties
est Ãł
Sh akes
k its
ad minister
la va
g Ã¥
è© ¦
×ª ×Ļ
Way ne
inst agram
r ated
p aper
b ild
pret ending
obser ving
tr or
organ isms
fal ta
h ometown
ç ±
í ĭ
che g
ì ¡
comm a
is Ã©
like lihood
av ored
gel di
med io
jak ie
J up
green house
sp it
G ram
Con ference
def icit
s Ä±n
r icht
coinc idence
åı į
eu rop
butter fly
p read
èĢ ¶
wa vel
In fin
Plan et
self ie
ient ras
ar rog
os er
id al
ł×Ĺ ×ł×ķ
Ã¼t Ã¼n
fresh man
Mach ine
Ïĥ ÏĦ
D ia
ìĿ´ ëĭ¤
ãģĵ ãģĨ
ne a
list ing
config ure
ut or
U p
ts chaft
ri Ã¨re
up wards
ÑħÐ¾Ñĩ Ñĥ
swe ep
B r
express ing
un happy
mand atory
g ender
A ÃŃ
indic ators
oil s
n ote
seg ur
yn asty
dist ances
mer ge
BER T
sur render
A wards
seÃ± or
od ox
fl avour
ab dom
config ur
DI Y
rig id
° ĺ
corpor ation
g room
j aw
Ne ar
oper a
In nov
ĵ ±
spec ified
cos m
Fre edom
cl own
N em
Ñĳ Ð½
à¹ģ à¸¥
influ ential
Ã¤s ident
é ¤
ìĦ łë
vol umes
æ Ĳ
out ras
Tw itch
found ing
a while
co il
ê° Ļ
c áº£
Th row
H ence
omm t
Ben jamin
Ð³Ð»Ñı Ð´
T ime
ob ic
m our
d read
L Ãł
Ch ile
pre val
v ain
art Ä±k
pres erved
Ð¾ÑĤ Ð´
ware house
best e
Sever al
S ituation
card board
T od
er na
gar ant
gest ure
h en
spe lling
ose xual
an ne
m ice
Me ine
c ard
re bell
cert o
vers chied
B os
inv ention
tr ze
man iÃ¨re
Ch ad
sp re
organis ations
poor ly
an terior
st air
atom ic
symp ath
contin ually
kle ine
Ã¨ te
Î¿ ÏĤ
pe ut
rep osit
ent ra
E m
finan cing
the sis
Com puter
e au
T ree
br ide
ons ieur
sh ire
w ic
D E
ac om
ers ch
Ar men
ì£ ½
z or
print s
D ass
æ¸ ¯
dur able
Trans port
ìŀĲ ê°Ģ
dÃ© t
Ã´ le
am ous
Y N
cl iff
gramm ar
lÃł m
es ch
miser able
vol ts
C ad
uk an
ÑĤ Ð¸Ð²
r ust
ìĺ¬ë Ŀ¼
ver k
chick ens
Y oo
out fits
c ode
hier archy
net es
counter part
t Ã´i
t ed
B art
ë Ŀ¼
Gen au
inc oming
A BC
ri que
Ð¾ÑĤ Ð¿
qu al
incent ive
ih ren
×ł ×Ļ
lo e
19 30
bar g
d iction
Ã¶n ce
IN S
re h
isia j
m outh
sc oring
l Ä±k
ìķĦ ì£¼
OR IA
Est ados
compan ion
pun ished
it al
prev ents
ist es
Kent ucky
loc ate
fast ing
ãģ¨ æĢĿ
ĥ Ģ
Se b
Cr own
op ia
wh ip
us z
datab ases
åŃ Ĺ
prose c
199 7
ìĤ´ì §Ŀ
Sol ar
P ues
Z en
oll o
G uru
sque ez
Ä į
cept ions
c ca
iz able
m and
break through
tables poon
S EC
ik h
S Ã£o
am en
pr ac
dar ling
tall er
rend ering
ìļ°ë¦¬ ê°Ģ
ÏĦÎ· ÏĤ
m Ã£
es os
uer do
Ñģ ÑĩÐ¸ÑĤ
all er
ìĹĪ ìĸ´ìļĶ
mill ones
ler in
pe gar
on ne
enroll ment
li egt
bo a
w iÄĻ
bs p
cy cling
Bern ie
198 9
Dak ota
C P
st are
prosper ity
arrange ments
arri ving
kay ak
ip t
p ardon
rel at
ver ste
F ig
fo il
Talk ing
pe are
no i
hoc key
ad o
O UT
horm ones
Aven ue
Super man
pres cription
uber netes
C L
ot ive
N IS
ien en
sad ness
V it
T y
bed e
found ations
so re
åº Ĺ
Ñĩ ÑĥÐ²
l ink
mane u
work ing
Ãł n
Att ack
C art
ve is
Res p
ens ing
ì¢ĭ ìķĦìļĶ
esc uch
Ĥ ´
ad op
b ending
Ø¹ Ø¯
man ages
us p
t art
rout er
B o
estab lishing
bal ancing
athlet ic
S lo
f ills
pos so
V ielen
crit ics
laws uit
Isa ac
ÑĦÐ¸Ð»ÑĮ Ð¼
tr as
pra w
Cra zy
ne u
k ull
tum or
AP P
g ate
A RE
9 8
Ste am
fuck ed
l age
M D
shell s
Se ems
iz ers
r anges
Anton io
AT ION
B aba
ìĥ ī
k un
pray ed
ÑĢ Ñı
Ð¿ÑĢÐ¾ÑĤ Ð¸Ð²
se as
×Ķ× ©
tra it
Dep ending
d re
kÃ¶n nt
ÑĨ Ñĥ
lip stick
ee z
Ð¿ÑĢ Ð¸Ð¼ÐµÑĢ
assign ments
B ob
met als
spe cially
ìĺ Īë
Å ¡
v ista
Î ¬
tw ins
not able
S au
dÃ© velop
Ã§ ek
poly nom
av am
tamb Ã©
pl asma
e fect
lÃ¤ ng
cas i
Ñģ Ð°
Ä±m Ä±
ãģĻ ãĤĭ
ĵ¤ ìĿĢ
lab our
oss en
P un
r if
d oses
oper ates
ja ar
st aw
ìĤ¬ëŀ ĳ
at m
protect s
imp ed
c ima
to ch
ab is
send o
la us
cur l
N um
spons ors
dÃ© but
Alex a
B Ã¼r
A mer
c ope
199 5
ap at
res se
Pri ze
Cla ire
Brand on
wszyst ko
val ued
à¸Ļ à¸°
se ct
secret ly
diam onds
Ev an
RP G
ãģ« ãģª
Īë ıĦ
Univers al
doub ts
P in
wiÄħ z
ļ ©
al bo
bra ucht
AU L
M obile
gr ades
sch em
wh y
N icht
p i
chor us
g ly
rein force
m uff
Sh en
Ñĥ Ð³
vid emment
v ial
ac ious
laim ed
R ico
ve gg
illust ration
But ter
ow ad
eu x
enf ants
Le ader
Vill age
et ically
ÙĨ ÙĬ
st ew
surpr ises
Grand ma
C elsius
R icht
en c
pet ition
her b
w icked
sch le
oc aly
trans f
tok ens
Gr ay
B BC
I K
15 00
z n
Ne v
k oy
bull shit
Colomb ia
ul ative
wides pread
y ect
k it
empres a
n our
burn s
at in
revolution ary
Log an
199 6
Gra ham
re b
N HS
æľ Ľ
cost umes
naw et
lo vers
Luc y
Ind igenous
immun ity
¥ ´ë
uit o
excess ive
don ations
×Ķ ×¨
ì² «
éī Ħ
dry ing
surve ys
ë¬´ì Ĭ¨
é¢ ¨
aa a
pro be
an cial
lou der
hot els
Ã¼ ÄŁ
ag ner
orig ins
ë§Ī ì§Ģë§ī
* *
str angers
Ha us
com ed
an throp
ìķĦ ì§ģ
Y uan
íķĦ ìļĶ
pl er
ress ive
sp raw
St ew
199 4
eld ers
me inen
j unt
ac oust
W ohn
ban anas
project ion
St ick
leg t
spe ed
cÅ ©ng
W ort
Balt imore
ÑĨ ÐµÐ»
dun no
å¼ ·
? ,
ãĥī ãĥ³
Loc al
ost o
Ð Ń
Port uguese
their s
dÃ© m
åı ¦
dra uf
Buddh ist
ert a
G e
car rot
Wonder ful
so ak
chair man
gg i
IC A
f ried
fl ick
Through out
ìļ °ë
c ough
fl uffy
sch ool
r ipped
---- ----
Zuk unft
st o
B O
p ent
Law rence
Ïī ÏĤ
st icks
E ins
ÑĢ Ñĭ
Str ong
car amel
sp ite
az ar
éĥ½ æĺ¯
crit ically
ow itz
Z one
ÑĢ ÐµÐº
su g
ard ed
g Ã¬
ff entlich
an che
ast ically
ìĿ ¼ë
simpl est
F riend
que llo
amb ition
abb iamo
åº ķ
ÑĦ Ð¾ÑĢÐ¼
Es sa
educ ators
statist ical
éĢĻ éĤĬ
chang er
at au
Ã©ta is
Shakes peare
ë Ĳĺ
tr iggers
real iz
cel ui
whe el
loyal ty
ke hr
M ega
e ast
top s
Tot ally
ount ain
l ord
viol ation
G A
nic er
F resh
Mel issa
fun ction
ra pe
except ions
sil icon
liber ty
household s
ãģį ãģ¾ãģĻ
C A
li b
ŀ Į
c ific
trop ical
investig ating
H D
ad apter
P itt
an cia
She ll
friend ly
conclus ions
tur tle
dec omp
anim ations
Ñģ ÐµÐº
ins i
ret ention
k ie
inject ion
Mad ison
ì° °
v ient
var ied
viol in
B il
luck ily
h tt
l Ã¤
r anch
çľĭ çľĭ
sÃ³ lo
D erek
Script ure
Ð¾ÑĢ Ð°
classroom s
av il
form ed
before hand
G em
pre ch
l in
gre ens
ÑĨ ÐµÐ²
Mer cedes
dr ought
ab ortion
ter ribly
spos Ã³b
sec ured
at rÃ¡s
wavel ength
gra ins
ect ive
space craft
tour s
prof es
sur geon
P ie
ide ally
arn er
U P
op ard
s ce
imm ense
Or t
roll er
D allas
Nich olas
s ulf
Toy ota
quant ities
ce ans
cu i
an Ã§a
C AN
itzer land
åĦ ¿
z ou
Cy ber
le gen
In it
ed u
a pert
ad jac
ou v
èĢĮ ä¸Ķ
r s
cab bage
wheel chair
iny l
D ynam
ìķĦëĭĪë Ŀ¼
l ing
h l
cris p
m ij
d ug
n in
bl oss
belong ing
loud ly
miner als
conclud ed
search ed
Me et
S EO
H ob
ot ta
propag anda
cin namon
hun ter
geme ins
sculpt ure
uls ion
v Ã¤l
magaz ines
controvers y
ä¸Ģ æ¨£
sequ ences
ãģĦ ãĤĭ
íļ Į
del eted
ä½ ¿
Ĳë ıĦ
vary ing
ãĥ Ĩ
mount ing
aff air
path ways
æ ¦
dig o
äº ®
A lex
tob acco
C V
bother ed
amb ient
ink y
h ates
je Å¼eli
con greg
de uts
Stud ios
ch ÄĻ
document ed
Cru z
L en
Doug las
Port ugal
ent i
sp ouse
anal ys
av ia
ed ited
l áº¡i
bu ilt
v ille
ad ora
brac elet
s ushi
p m
tra ils
l ug
Ã¶ ver
s orrow
col ony
ado x
ser ie
any ak
Ø ·
G ulf
æĺ¯ ä¸įæĺ¯
P V
Sam uel
R al
ont in
ex pl
ent ries
activ ists
s ant
Br uno
ke ley
tut to
é Ķ
v intage
terr ified
us ive
ow ers
ë ıĻ
twist ed
Th ought
t ah
shr ink
she er
l it
dal am
d ib
v ard
ow ane
do br
R ena
paÃŃs es
E ra
ãģ® ãģ§
B UT
ê·¸ ê±°
gro ÃŁen
ë¹ ¨ë¦¬
n erves
const it
preoc up
G ay
X u
.. )
Cal m
Un idos
ìĿ´ ê²ĥ
Aqu i
ìłľ ìĿ¼
d Ä±r
ì¦ ĺ
y our
ÑįÑĤ Ð¸Ð¼
20 20
r und
H O
C atherine
iel i
f usion
ide ology
for am
sh aped
íĽ Ħë
w t
ret r
pr Ã©c
open ly
v ity
êµ¬ ìļĶ
obst acle
bo o
se iner
ic orn
eigen lijk
head er
are mos
so fter
pre jud
defin es
ier te
bl ending
belie vers
Wo chen
Typ ically
íģ ¬
ç® ¡
ci os
miss iles
sp onge
K itchen
t ren
ning en
sc rap
ser ait
´ì ł
ç ¹
ë° ĺë
rest ored
przy kÅĤad
K ubernetes
sa it
en abling
tra vers
amp s
åı Ĺ
OM G
ens or
z osta
pronoun ced
A ng
norm al
econom ies
t in
Champ ion
iz en
G ospel
Z u
ng a
liter acy
M ans
circul ation
ad ap
Tot al
mere ka
ol acak
ÑģÑĤ Ð°ÑĤÐ¸
J ack
th ief
b ies
a que
Ú© ÛĮ
Sc ar
å ²
ab ol
dev ote
0 1
s itten
Vis ual
we ek
s ome
ing t
journal ism
H ir
B achelor
in ery
Ãľ ND
ãĥ Ł
ç» Ļ
color ing
Cr ist
celebr ities
Ñĩ Ð¸Ñģ
C rit
different iate
se afood
algum as
otherap y
æĪ °
gla ub
arbitr ary
g ens
t av
cream y
Count ry
h inter
m ism
illust rate
ÃľND NIS
decre asing
wen iger
AK I
ix on
fat to
n erd
ç ł
b itte
P er
t ane
gÃ¶ z
for te
E y
è¢ «
Word Press
M is
Å ¯
z Ã¤h
intÃ© ress
osa urs
Fall s
n essa
museum s
correspond s
f our
ed er
Commun ist
o a
ne k
WH O
cor po
mess ing
ÏĦ Î±Î¹
brush es
b isc
Ar beits
T ax
se le
flag s
ou pe
anticip ated
ãĥ ĳ
N ad
pou red
m l
ll ama
visual ize
listen ers
ÙĦ Ùĥ
Mich ael
cos Ã¬
Õ¡ Õ
op us
h ike
Att orney
Hill ary
ud ed
íķĺ ì§Ģë§Į
do ve
storm s
doct rine
he x
ik s
no ÅĽÄĩ
script s
Î´ ÎµÎ½
Ð Ĩ
ab er
V as
cent imeters
×ŀ ×Ķ
rid ers
T rib
åĮ ħ
tak Å¼e
n oun
ic ons
sole ly
disp on
Sw itzerland
cl usters
qu eda
ail ing
man ga
Ħ Ī
t et
g ins
ha us
ç© º
å· ¥
O P
ot ed
nouve au
AL LY
ÙĪ Ø¯
Ã² n
mort ality
Git Hub
d rop
dis gu
rec om
loc als
home made
amb a
pron unciation
al phabet
ow any
ir as
id ency
OM E
ÑĢÐ°Ñģ Ñģ
ar ak
v iamente
non profit
YouT uber
p arenth
B oo
v at
St ir
pre cip
an ts
all y
Ma ori
ëĮĢ íķľ
åı¯ æĺ¯
og ene
Lab our
aret te
recy cling
ens a
purs uit
s ak
toler ance
sa at
click ed
face book
Int o
incent ives
ê¸° ëĬĶ
D ennis
W ik
ges ch
à¹Ģà¸ Ľ
Wh oo
do pe
capt uring
War ri
civil ian
char ming
es as
sust ained
le aning
abund ance
ÃŃ lia
Ð°Ð»ÑĮ Ð½ÑĭÐ¹
ph áº£i
ac ja
ê°Ļ ìķĦ
act iv
à¸² à¸¢
9 7
c ro
Jack ie
itt ees
br acht
ul ent
plug in
part y
su as
an te
Ñĥ Ð»
æĤ ¨
Ïĥ Ïħ
met h
enthus iasm
ÑıÑĤ ÑģÑı
synth etic
season ing
L ost
on omy
Sp ark
b ure
ass ured
car ro
S ha
Äħ t
Ð½Ñĥ ÑĤÑĮ
Ã¡t ica
k ern
Brazil ian
Ã °
susp ended
Car ib
biz im
Ol iver
ãģ ¶
T om
n ope
omet hing
be iden
flu ct
Î¼ Î¿Ïħ
f athers
Bl ake
up ward
D ash
L il
ìĪ ĺëıĦ
revel ation
elev ated
Ji ang
LE D
Thom pson
ÑģÑĤ ÑĢÑĥ
if iers
come back
buy ers
ê² °
S ales
Ð¸Ñĩ Ðµ
c iones
d ull
LE X
crimin als
des cent
ipp le
mas Ä±
fool ish
t ar
man go
chore ography
M att
terr itor
ac aba
Ein stein
I BM
Met al
Cry stal
r ah
f oul
Island s
int act
R ail
. :
ac Ã¡
Ð¿ÑĢ Ð¾Ð¿
ÐµÑĢ Ðµ
Wr ite
F O
Ïĥ ÏĦÎ·
do in
h eld
appropri ately
deliber ately
arch ive
give away
ãģĵ ãģĵ
fin ale
Æ¡ n
æ£ Ĵ
og o
çī ©
Aud ience
ãħ ł
sub ur
head ache
W itch
Swed ish
B I
er ase
k hi
comment ary
S ultan
íĥ Ŀ
Le ban
ë³´ì ĭ
P am
pe kt
mon th
ground ed
ÅŁek ilde
2 50
S CH
ios o
in aug
he imer
reflect ing
R uth
O il
trou ver
u ep
.. ]
ìŀ Īë
ol ha
reason ably
gl itch
U B
Gr an
ad alah
l ent
Ø± Ø§
tr action
adjust ing
´ ¤
stretch ed
or t
cos ine
vi ol
ì ħ
c ir
bast ard
ä¸ ĩ
Ñħ Ð¾Ð´
qu ier
press ures
An h
å¹ ¾
ell es
Ð¼Ð¾Ð¶ÐµÑĤ Ðµ
ch á»
M Ã©
Ã¶ k
áº§ u
ìł Ī
z in
ca ution
ib an
jud ging
ÑĥÑİ ÑĤ
b aj
Po or
Naz i
up beat
y ang
week ends
Ess entially
ol uyor
spat ial
ack er
sell er
×Ĳ ×ķ×ª
ĳ ×ľ
v ivid
B ond
ê ¶Į
is kt
ãĤ µ
go at
dri ver
m ug
ict ional
all t
In iti
R and
finish es
vit am
teen agers
Mor ris
ì¤ Ħ
O ri
i ya
my Ã¶s
St ep
K re
è¾ ¦
din osaur
ëª ĩ
aff e
ëĲ ©ëĭĪëĭ¤
z eg
åĪ ĩ
Manh attan
su jet
ue lle
st off
d Ã¼r
sub mar
es es
a quele
n ou
Fa ith
t z
ÑĤ Ð¾Ð¼Ñĥ
ace ut
li ers
band width
Æ°á» Ŀ
respect ive
A ve
spread she
S ent
ic amente
inf ra
learn ers
à® ī
ai ah
ren al
must ard
ç ĥ
Qu Ã©
analy zing
æ¯ ı
so lic
×Ķ ×ķ×Ĳ
caus a
wel comed
S uccess
fac ile
ÐŁÐ¾ÑĤ Ð¾Ð¼Ñĥ
sche in
f etch
str at
ìĹĲìĦľ ëĬĶ
m am
ser ÃŃa
nam ents
wr iter
consult ing
íĺ Ģ
Ber keley
e u
as ive
U U
Anal yt
subm ission
magnific ent
en za
e con
prof iles
inc ar
A b
N un
scream ing
resil ient
åĪ ©
conc ur
bere its
nur t
ì ī
fe ast
enc uent
Mich el
sup rem
" ]
feed s
Koll egen
iss er
F eng
W en
m un
ten ÃŃa
W rest
ìĺ¤ëĬĺ ìĿĢ
st ead
rest oration
don ated
del s
c ensus
desper ately
worth y
H E
Sp a
h j
R aw
ìķĦ ë
z ien
st yl
T W
Che ese
bor ne
ob l
Al ready
unst able
fl ames
p ost
H a
rom agn
ìĹ Ħë§Ī
d est
kole j
tempor arily
determ ining
Gl ass
ÑĢ Ð¾Ð½
ol an
dom inated
åĮ ĸ
__ __
Ùĩ Ø°Ø§
D ana
din heiro
a qu
ë ¯¼
Jo ey
Gr iff
att ain
trans itions
Liter ally
Ha ven
grab bing
cryst als
Four th
cand les
ÑģÐ»ÑĥÑĩ Ð°
ric o
et to
und o
k to
di vert
ch ir
per sec
h iking
announce ments
çĶ ±
a uc
system ic
R M
Ïĥ Î±
y ar
W ard
piss ed
car n
autonom ous
ãħİ ãħİ
so ver
æ²Ĵ éĮ¯
å¾Ī å¥½
ref lex
gard ens
ì ±
ami ÄĻ
continu ity
citizens hip
sch wer
z ak
t able
Ñģ Ñĩ
è§ ģ
gener ates
êµ¬ë Ĥĺ
Ã¶ h
Ã³ m
al am
JUD Y
B ug
ãģ ¦
dr ones
Ã¡ gua
ac aks
æ ļ
× ĸ×Ķ
stri ve
Al tern
ne arest
pro yect
ter a
ASH LEY
wor m
re play
t ara
Ind ians
ãĤ °
ica id
appe aling
W es
ment ions
k w
frag ile
is z
k Ã³w
h ang
col or
president e
çĪ ¸
N elson
Ã¡ fic
MIC HAEL
mechan ic
met res
o czywiÅĽcie
C ind
og sÃ¥
lands ca
AC E
head lines
cat alyst
C atch
ink les
p ills
ord o
immig rant
exam ination
acc idents
zÄħ d
qui ere
ne lla
6 7
pass a
super fic
ist or
no v
mand ate
is ons
Virt ual
sel ber
counsel ing
N BA
se pt
belie ver
mar vel
Inte gr
or ph
back ward
Gen eration
P ict
tap i
pro chen
hall way
ht e
Ûģ ÛĴ
Z um
èĢģ å¸«
ach ment
iqu er
fol g
Ed die
K il
well ness
st ock
è¼ ĥ
ka Ã§
terror ism
po inter
O f
her ic
Ult imately
mes es
Tr ade
p int
tu ition
disag re
ê²Į ìŀĦ
manus cript
ro omm
output s
r ies
sal ud
otz dem
mass es
by ÅĤa
clear ing
disc ourse
ats on
fold ed
J ar
ÙĦ Ùī
9 00
Ñĥ ÑģÐ¿
prophe cy
interf ere
Ð¸Ñħ Ð¾Ð´
à¹ Į
th ri
laz Ä±m
199 2
fut uro
lock ing
embar go
Ne ither
iv amente
mÃ¥ ste
m ik
collect or
G and
sent ir
M ight
å¡ Ķ
gan zen
U C
rel ating
S D
mos quito
G R
ho llow
âĺ ħ
Walk er
affili ate
duplic ate
gra pe
Organ ization
sy nt
J oe
g eg
reve aling
Eth an
out er
y ay
é« Ķ
reported ly
ihr er
recogn ise
bum per
R andy
Ven us
t les
appet ite
gluc ose
Further more
t ir
cont a
int uition
alt itude
ch unks
Josh ua
Ä±ÄŁ Ä±m
ry lic
le ans
íĶ ¼ë
L L
Q ue
po ems
exc el
expl ored
pop ul
inclus o
st Ã¤
G avin
all ing
ÏĦÎ¿ Î½
é ©
ar beit
G as
gl orious
rie ben
sp am
indo or
thr ust
A ld
Pri or
on board
ãģł ãģķãģĦ
o ca
AS H
£ ł
Christ ine
dra wer
no on
ìŀ ĺë
perman ently
æ· ±
Ð½Ð°Ð¿ÑĢ Ð¸Ð¼ÐµÑĢ
podcast s
era peut
pr it
stain less
Ú© ÛĴ
famil ia
un to
ÑģÑĤ Ð¾Ð»
h Ã¤
H ai
P B
iz on
kon nte
bÃ¼y Ã¼k
util izar
Ú Ĩ
aqu esta
mix er
ud ent
ÅĤ u
ÑģÐ¸ÑģÑĤ ÐµÐ¼
fat al
consider ations
valid ation
o li
k ardeÅŁ
GL ORIA
p all
ÐµÑģÑĤ Ðµ
rect ang
med ieval
allah i
ast i
Sy rian
she ar
deb ug
M ai
knock ing
Le x
ard an
ro v
mem orial
æ° £
ook y
stuff ed
pass Ã©
Ĥ ł
prÃ³xim a
199 1
nuest ros
Be ast
sm o
atch ed
olog ia
concept ual
Ã ´
decre ases
quer ies
Ð¾Ð»ÑĮ ÑĪ
A part
ex empl
å± ±
fl ed
gg ak
be ad
h ir
l ies
Clear ly
Ä± lar
ch ess
which ever
9 6
áº ±
respect s
organ ism
grand pa
V ie
è·Ł ä½ł
flo oding
upgrad ed
Ñĳ ÑĢ
cheek s
con quer
stub born
puzz les
au ction
re lying
PRO F
Es per
hy pe
poss ibil
imp rison
Er n
ìĹĪ ìĬµëĭĪëĭ¤
env ie
resur rection
ä¸į è¡Į
s per
Venez uela
s om
ìŀł ê¹
nouve lle
clos es
19 40
P ir
ind e
scr ub
uk u
requ iring
consider able
åĲ Ľ
il ia
in ne
mein em
hard ship
tra ps
ro c
ìĦ ¤ë
research ing
Marg aret
pen ny
bÄ± rak
Ñĳ Ð»
w ool
r het
flat ten
ç ĩ
à¹Ģà¸ £
p ied
Ch ap
under m
f ret
crash ed
Fra uen
Ø° Ùĩ
iv an
liter ary
late go
sp Ã¤ter
similar ities
Cor on
C reek
boss es
accompan ied
deb ates
assemb led
V ai
tr act
simple ment
vulner ability
horm one
I EL
OO K
rel ay
And rea
r il
necess ity
aceut ical
Ñİ Ñī
ous ing
nah men
foot print
m ap
T ier
ann ya
int end
åĸ ®
å ¢
decor ate
zomb ies
Hy d
Su z
campus es
E mb
thr ottle
ad min
op ortun
mir rors
ident ities
Cl in
ë¹ Ħë
á¹ £
O tt
bl ues
impress ions
v ague
a fe
infer ior
eral d
medic ines
pre gunta
os ely
t Ã©lÃ©
Mon th
Le aders
Egypt ian
r ation
k ers
he its
P lay
e g
poll s
WOO DR
sl ots
j am
B oth
R at
ÑĢ Ð°Ð¶
Br ight
ä¸Ģ å®ļ
á»ĳ i
ur ious
sing ers
lo gin
t Ãªm
l ation
M um
Æ°á»Ŀ ng
Ed itor
åĲ ĳ
innov ations
h ave
S ek
we aker
G ob
A fter
´ì §Ģ
ë¬¸ ìłľ
ãĥ¼ ãĥ¼
disad vantage
ç¢ º
g aze
M ack
Ïģ Î¯
K iss
H olo
Bir th
iz i
b ab
ä¿ Ŀ
ìĭľ ê³ł
squ at
ÐºÑĥ Ñģ
Comm e
WOODR UFF
Champions hip
wel che
Y outh
z em
od pow
persist ent
ìĶ ©
la ir
ik u
vend or
ch Ãºng
finan ci
over ly
Ã¢ u
gl uten
18 00
div isions
ciud ad
war um
e her
el im
peu vent
W anna
attend ance
assess ments
B og
imag ery
collect ively
inform al
Sch we
de utlich
Ch el
P E
b anner
shel ves
Ret urn
æĭ ¿
LAUGH S
congrat ulate
Nor way
d well
Carib bean
norm s
An imal
Valent ine
ext ending
V ou
or r
Ch eng
Â ¡
Ð´Ð¾ÑĢ Ð¾Ð³
ve g
h Ã¥
X in
em et
hyp oth
interess ante
ric es
I Z
US D
run ner
B ag
ê ½
comeÃ§ ar
pig s
weakness es
P h
Vi ol
ä¸į çĶ¨
dra gging
Aqu ÃŃ
CS S
mill imeters
est Ã¡s
ac ute
de jar
i ÄŁ
ob ra
L ove
sil k
** **
jo ins
pro l
ê°ĲìĤ¬ íķ©ëĭĪëĭ¤
æĶ ¯
ØŃ Ø¯
agh etti
Ã¤n ner
str ang
doub led
descri ptions
st ellen
part i
ç« ĭ
² Ħë
Ã¶ ÄŁ
ig hing
ang ular
nat uur
Sh el
Æ° Æ¡
r ays
se per
st art
v ised
rush ed
internation ally
nive l
fall en
á»ĳ c
se inen
plic ity
carb oh
Tra vis
us o
Ph ase
activ ation
op io
· ¨
decre ased
C ar
bund le
exp end
orm al
adjac ent
Ð¾ÑĢ Ð³
trans cript
Lang uage
è§ ī
se ul
Ãł nh
n ya
ning s
ìĭ ľë
ëĶ°ë Ŀ¼
A gr
ÃŃ d
çķ Ļ
ab y
Ne o
Ä±yor uz
Think ing
v ite
trav Ã©s
O ur
ho ot
P izza
hy g
fl ies
Contin ue
dent al
T ib
reg ulate
lie ÃŁ
AL K
Ta e
Bre xit
G ut
occup ation
z robi
Ã¢ m
wh isk
ä¸ĸ çķĮ
kans ke
om on
war fare
th á»ĥ
jak i
stro kes
pe as
Dam it
H AN
inter ference
N ER
out ing
text ures
Ł ī
ow i
íķ Ļ
protagon ist
Ã¤n n
god dess
woll te
ij o
Wo che
st ory
kind erg
fun nel
dist ress
Ð½Ð¾ÑģÑĤÑĮ Ñİ
no isy
dar an
enzy me
m ute
d war
kom pl
mer it
f osse
Dr ink
for a
bree ze
san it
dr in
ìĿ´ê±° ëĬĶ
aby tes
de eds
Ð ¹
i Ã¨me
igg ling
" '
Ans wer
ev angel
10 80
Vis it
ic ient
reli ability
Ñİ ÑģÑĮ
Ear lier
f id
çŃī ä¸Ģä¸ĭ
slee ves
iy orsun
b ib
Acc ount
Ñı Ð»Ð¸
cipl inary
neck lace
bl ender
Phill ips
et i
Jup iter
prov oc
Ye ars
ent re
ac io
k Ã¼
anten na
novel s
f art
S ugar
Jud y
collaps ed
ç °
rit is
ìĥģ íĻ©
Ver f
rane an
ere um
Tar get
8 8
ide o
reg ression
mÃ³w i
stud ios
i ens
ip h
fr ying
fasc inated
W ah
b ucks
m aya
Sat urn
M ommy
rating s
aut umn
Æ°Æ¡ ng
los er
cent ro
Ã©rie ur
F old
super visor
No bel
under est
ob ia
ver w
fu els
artif acts
ë¶ Ļ
Aut om
çļĦ æĺ¯
Û Ķ
×ķ× ¡
ih nen
5 9
ound ing
ÐµÑĢ Ñĭ
in ars
add icted
explos ive
disp ers
â ĸĪ
ax is
AR Y
l um
Ñĥ ÑģÐ»
Ø Į
ru pees
Pe arl
c amp
t v
oy a
conclud es
coll ision
buy er
play ground
spr ings
femin ine
R as
incar cer
íĹ ĺ
dial ect
clos ure
chat ting
b abe
spot light
not ation
è· ¯
St ar
i Ã£o
t Ãªte
t ide
jun to
sen ator
Ð ¥
excus es
bl ink
adm ission
L ily
Ñĭ Ð¼Ð¸
am igo
l ust
ëĭ ¬
am ino
äºĭ æĥħ
consult ant
Elect ric
ëħ¸ë ŀĺ
uj ah
shoot er
icht en
Ukrain ian
aim s
Enter tain
mir acles
èŃ °
ze igen
l am
res s
J ill
yl an
ro ok
h aya
pass port
ad ata
ju icy
con f
S z
inter cept
ãģĤãĤĬãģĮãģ¨ãģĨ ãģĶãģĸ
Te ams
mak en
ir rel
LI KE
áºŃ y
short age
parad igm
pap el
ast ero
ãģ¾ ãģŁ
soll en
Mic key
Or leans
chol esterol
go ose
ãģĤ ãĤĭ
trib ute
G am
Ã© videmment
Ñı Ñħ
å® ŀ
çĶ °
in appropri
uh an
organiz ational
ail ed
end ure
shot gun
liv re
su ited
warm th
S IM
env ision
de grad
Ã® ne
Who ever
Buddh ism
spr inkle
ceÄŁ iz
ru ins
st arch
Her z
injust ice
hum idity
Ob ject
I gn
Ex am
ig ers
th ou
So y
iv as
pol es
m ath
ING ING
ed ral
expl or
roast ed
craw l
co ff
an om
impro ves
treat y
discover ing
stat ute
merc ado
Ñģ Ð¸Ð»
int el
Chance llor
Med icaid
ug i
ver bal
d Ã¶n
script ure
it eration
ek s
Ox ford
w Ã¤h
V ad
A K
ìķĦ ìĿ´ë
i ets
need les
Ùĥ Ùħ
pas ado
album s
ye a
et zen
Ħë ıĦ
determ ines
the e
Play ing
Ã¤r t
× ¦
c led
down ward
al one
sol u
part ition
w z
d d
pesso al
å ª½
fact ories
ble ibt
à¸¡ à¸²
als a
NF L
fu era
res erved
E arn
hel t
short cut
convin cing
sp ace
en force
c ores
e fter
recess ion
x ico
prop osition
ar ians
rop ol
ëª °ë
Î ľ
ìļĶ ì¦ĺ
activ ist
conv iction
z ab
cancel ed
Î ®
éĢĻæ¨£ åŃĲ
n ite
fund ra
buz zer
ic ations
z ona
te ens
method ology
ì¤ĳ ìļĶ
th an
U l
G rey
IN K
S ung
C laud
CN N
del ivers
al in
Ad obe
ot he
Des wegen
à¸ ³
wer de
gre ase
up grades
Fin land
ac cept
inter rog
be e
ãģ «
pre de
N ep
Cam bridge
graph s
ha unted
Ñģ ÐµÐ¼
æ §
åħ ĭ
S ome
M all
rehears al
Ur ban
L ag
ê° ķ
position ed
avo ided
EM A
lleg ar
rÃ¡p ido
gou vern
h ing
deal er
reform s
fat ty
A ce
ne p
ì² Ń
comput ation
St ream
bour ne
t ur
P or
sleep y
bang et
ãģĤ ãģ®
we ighs
ble iben
G ren
un ions
êµ Ĳ
ap render
uit ar
J est
um ing
Play er
Ext rem
integ er
Ð°Ñĩ Ðµ
concert s
×ķ× Ľ
tro chÄĻ
Re pe
éĩį è¦ģ
à¹ Ĥ
Å¼ en
sound ing
an onymous
ex ca
Iran ian
ÑĨ Ð²ÐµÑĤ
a is
ãģĭ ãģª
sud ah
under wear
crunch y
P ain
ger Ã§ek
red ict
m isma
Ñĸ ÑĤ
surv iving
ÎŃ ÏĤ
particip ant
H essen
Ã¡ri as
sub way
ist Ã¤
cor al
mar ijuana
Mem orial
ÑĪ Ð¸Ð¹
ri z
satell ites
le ase
Cam eron
um ph
class mates
Ã¤h Ã¤n
h ue
ĵ¤ ìĿĦ
proport ional
n oss
l aps
r Ã¥
bit coin
ÙĦ ÙĦ
M ort
Es p
arn os
Ã¤ nd
åħ Ħ
×Ļ ×Ļ×Ŀ
Ge b
ge hen
bor ough
ÑĦ ÑĦ
fellow ship
P aper
cur ved
GE OR
calcul ator
Cat al
vÃł o
by pass
à ³
tr ans
ren cies
ì ¡Į
ig ent
tast ed
o ceans
u ft
erv ice
Class ic
respect ively
~ )
Ã® tre
N ash
z it
ëĨ Ĵ
qu ote
Un s
t ac
pro ves
Port land
b ly
ì¶ Ķ
Ã©po ca
ÑĤÑĭ ÑģÑıÑĩ
7 6
had e
F ro
polÃŃt ica
t ag
sch Ã¶
are tt
prov isions
mot ors
imag ing
do k
ul ously
me ille
çİ° åľ¨
ë Ĳ
IS O
ST EM
Bow l
to wers
E e
Perform ance
lo in
cuss ion
coast al
ial e
com pass
spell s
disappoint ing
ë²Ī ì§¸
E ER
vers atile
as ury
en fin
down side
gu iding
Ø§ÙĦ ÙĤ
nin ety
char ged
F ans
philosoph ical
g arn
mÃ¥ nga
willing ness
port ions
ab en
Â ¿
ra ul
spr int
if en
Ä±y la
ãģı ãģłãģķãģĦ
ens uite
Cap itol
Ð³Ð¾Ð²Ð¾ÑĢ Ð¸ÑĤ
appoint ments
æī ¾
omi ast
care g
publ isher
her aus
Îµ Î¯
V S
ãģĿ ãģĹãģ¦
ä¸Ń åħ±
sacrific es
th ird
human itarian
ëĤ ´ì
im on
ine qu
z ob
comfort ably
D inge
cancell ed
PS AKI
Rob inson
fin s
) ?
Hist or
t bsp
te xt
k im
upd ating
gel d
f eld
ı ¼
m Ã¤
caf Ã©
Ö Ģ
S ri
Reg ion
H ahaha
fin ances
Ø§ÙĦØ ´
b unk
ru k
later al
ext ensions
ìķĦ ìĿ´
defin ite
Z hao
Lu is
st y
cas os
K lim
199 3
real ization
histor ian
crack ed
ëĤ ´
syst Ã¨me
C IA
ÑĤ Ð²Ð¾
osp heric
fle e
r áº¥t
Regard less
rel uct
tim ely
Jul ian
G M
é Ĵ
ad ura
é£ Ł
dress es
çģ £
ëĶ Ķ
nom inated
advoc ates
ym ph
record ings
dev iation
priorit ize
spir al
YOU R
transp ose
amp oo
ìĽĲë ŀĺ
V ision
pol ite
ha mb
Pat ient
æ¯Ķ è¼ĥ
s ia
è§ Ģ
super market
ë ¹
S ierra
gr illed
Up on
abs ent
me c
Ap ollo
Pa ÅĦst
ê±° ê¸°
G irl
skin ny
Prem ier
territ ories
li ability
j erk
r atic
dan cers
Ñĥ ÑĢÐ¾Ð²
ê´ Ģë
on ly
St u
ske leton
ëŃ Ĳë
Ä± kt
MI KE
l Ã¶
m ie
re iter
ãģĵãĤĮ ãģ¯
Koll eg
Ad ams
lich er
Ã§oc uk
Ñı Ð³
bl ush
sun shine
e z
Dev il
ê¸ ¸
ãģ Ĭ
ad d
lic ensed
v inyl
C zech
im ag
crack ing
ud ah
s ommes
ìĸ¼ êµ
wa Äĩ
f res
åĳ ½
Wal mart
at isf
l ang
diff usion
çĶ ·
som os
M akes
æĪĳ æĥ³
Rick y
much a
íķ ¨
horse power
as ia
fib ers
Ñģ ÐºÐ¸Ðµ
jest e
fire fight
cu isine
besond ers
d ig
ì¢ ħ
Ñĥ Ð¶
tr acing
certain s
App ly
ç Į
br u
Y ES
B ai
D it
B is
un le
Aw ak
.. "
root ed
caut ious
con st
orchest ra
çľ ¼
quel qu
Met hod
ì¹ ľ
Î¼ Î±ÏĤ
l Ã¼
ìķĦ ê¹Į
n aming
C har
S icher
privile ged
F ly
ãģ ĭ
áºŃ t
adv ances
Zel da
and ra
gr inding
Ed ition
p f
warri ors
h edge
uns eren
ÑģÑİ Ð´Ð°
el iness
personal ities
' M
sh ipped
mete or
surround ings
F ill
u esta
Person al
All e
OR T
ä¹ ħ
S che
compar able
dam n
d itch
Y AN
ism us
pick up
d ak
E P
b est
S ue
Ã¤ll t
pop corn
fold ing
h ome
å·² ç¶ĵ
an not
ch uck
fier ce
dam aging
fl op
pas ar
re ef
z oo
o vers
pr Ã¨s
Sil icon
te ok
S eth
at amente
transm itted
repl icate
sl im
C ream
æĦŁ ãģĺ
side walk
ìĪ ĺë
Mon ica
ä¾Ĩ äºĨ
cop ied
Ter ra
ist ent
ç³ »
wh ale
W ITH
å½± çīĩ
E en
ord in
pl ural
sp okes
disp ute
sens ible
pre aching
ktÃ³ rzy
pt ed
av ier
pist ol
Tap i
ff ff
ac rylic
ignor ance
Z iel
weld ing
m id
æĪĳ ä¸į
lan es
min es
mom s
×ķ× Ĺ
Cham ber
t ier
mod est
ìĹ¬ê¸° ìĦľ
un as
w rench
hand ed
satur ated
F ang
Commission er
à¤ °
× ĸ
Louis iana
M ask
cub es
ìĶ ¨
vidÃ© os
nÃ¥ gon
r ider
ì¶ ľ
s Ã³n
Lat ino
b ank
íķ´ì £¼
B rend
sexual ity
... ,
forget ting
Aven gers
Bon jour
cess or
c ence
ge ograph
cul o
swe ating
íĥ Ģ
symm etry
ts Ã¥
j an
Fer r
é¦ ĸ
amb assador
ziÄĻ k
mus un
Ñĥ ÑĤ
L G
iss ent
comm un
cour s
develop s
bron ze
subst ances
dri ven
a os
åĦ Ħ
PROF ESS
h alf
sort ed
B omb
Malays ia
Christ ina
team mate
èģ ŀ
k Ä±
heart ed
+ +
ogen ic
bell s
Ou ais
special ists
dep th
lass es
g ies
Co ffee
mark ing
fo ll
ul i
ad hesive
B ot
P unkt
e ye
B ub
åĪ ¶
Ð¿ÑĢ Ð¸Ðº
don or
en for
catch es
br icks
kn itting
Know ing
ok s
r ide
Fant asy
im an
p se
rest ra
evalu ated
ÑĢ ÐµÐ²
fortun ately
che gar
Ø± Ø¨
dom ains
ib i
ar ry
shut ter
fic ou
M ike
inc lu
don ors
a pl
L ower
import ed
acad emy
fin als
disappe ars
administr ator
cut ter
r anging
Ã¶r per
constra int
T able
Sh an
F ix
Sw ift
oun ces
War um
lett uce
sh ave
b Ã¡s
7 7
O oo
a o
Mc M
D rew
l ump
l ashes
schein lich
R ep
in is
C ette
compos ite
emet ery
sort e
Fin ancial
ron es
V oy
t Ã©c
ł ¹
Nin ja
Cor in
ìĿ´ìĹ Ī
n ich
detect ive
âĢ¦ "
Ïĥ Îµ
Ŀ¼ë ıĦ
ë³ Ģ
ë¸ Ķë
pro pe
W right
×Ķ× ª
Sh i
ãģ Ł
investig ations
éĤĦ æĺ¯
Power Point
Ch u
ìĺ ¤í
ìĻĦ ìłĦ
Fra gen
un ning
pour rait
text book
l akes
Ã¼nd e
I nt
Met ro
mans ion
Zh ou
corrid or
esc ol
indic ating
ia ÅĤa
m ommy
arch ives
found ers
eng ine
Die u
sick ness
ë³´ ëĭĪê¹Į
n ed
Ch op
co vid
sl am
public ations
D C
sp ends
æ ¾
refuge e
d ile
×Ĳ× ĸ
ific ar
S ach
G u
re load
?? ??
je ÅĽli
Ñģ Ð¾ÑģÑĤÐ¾
sim plicity
bull ying
real idad
uncle ar
app a
IS IS
W atson
de in
Mic ro
íķ ľë
Ã¼ g
dev am
twe eted
å° İ
understand able
at an
vers a
pre ca
v á»ģ
Cop y
Or acle
mindful ness
disc ret
ern en
P le
H ave
isol ate
de u
sevent y
H ills
arc ade
sigu iente
B ÃľNDNIS
lig a
Ð²ÑģÑĤÑĢ ÐµÑĩ
Ã´ m
twe ets
sch auen
crit ique
st att
Ã¢n cia
super natural
plug ged
F l
yn Ä±
Tamb iÃ©n
encourage ment
Ser ver
ëĤ ľ
up a
ast on
he ars
sch e
rec uper
un ten
Fight ing
academ ics
ç¤ º
S Ã¼
Ñģ ÐºÐ¸Ñħ
pa ired
Ģ ìĿĦ
Ã¡ rea
sweet ness
åı Ĭ
de fer
muit as
Aud io
lock er
ÙĬ Ø¯
ÑģÑĤ Ð°Ð²
bu ena
AN S
detect or
av o
be k
Î± Î½
íİ ¸
dra gged
Ã ĸ
Ø± Ø©
ìĿ´ì §Ģ
cell e
ck ing
Ø§ÙĦØ ¬
Can vas
espa Ã±
gl imp
spread s
ong o
M ason
In g
ê°Ģ ëĬ¥
ÏĦ Î¹Îº
sec ular
b ater
inqu iry
energ ies
manufact ured
veget arian
pine apple
ÑıÑĤ Ð°
practition ers
2 000
íķ´ì ļĶ
ìĹ¬ëŁ¬ë ¶Ħëĵ¤
ë¶ Īë
Jeff erson
Jo an
tr am
å® ¹
ch mal
H ait
á¹ ĩ
un real
symbol ic
ste alth
spl ash
Entertain ment
metall ic
?" .
è¶ Ĭ
ar ound
desp air
Nev ada
Fin ance
k rie
L ux
Sm ash
ke eping
narc iss
dz isiaj
toler ate
o ard
link ing
Econom ic
ì ¼
mor ph
N ak
B aker
at on
r ings
P eng
Air port
ãģĭ ãģ£ãģŁ
íķĺ ëĭ¤
§ ģ
pr ints
had i
emp ir
L ives
ann ers
PROFESS OR
positive ly
ant om
bad ge
ke lt
inter fer
fulf illing
visual ization
éĹľ ä¿Ĥ
Pr ice
ï¿½ ï¿½
scen ery
pr one
w izard
b anyak
ver b
s ky
wish ed
rail way
Ã¼ zer
algu ien
A W
react ing
B uch
à¸ ¶
an th
si h
h ust
Sc reen
il ant
ah o
fragr ance
elev ation
Med iter
ë ¿
Ã© qu
wra ps
in ert
recre ate
bo leh
harass ment
unk y
glimp se
reg ierung
fut ur
reposit ory
eng ra
traff icking
ass is
Tre k
ë² Į
ë§ Īë
K ab
ani u
g ive
din osaurs
fe ather
att itudes
pl um
An fang
ill ery
ìĬ ¤
M Y
trze ba
sk ies
A j
ur able
Sh ane
depart ure
T ON
iet en
r ats
æ° Ĺ
is u
b ord
interesting ly
çĻ »
oug hing
r ushing
vol atility
p yt
form ats
ê¼ Ń
what not
comp ort
s w
ore an
Rel ax
cl an
A H
pe w
diction ary
T ake
sh irts
H ugh
Ø¹ÙĦ ÙĬ
P ic
enroll ed
jed nak
offer ings
cor az
L ife
cl er
Vide os
Rod rig
Id ent
P os
St age
R ace
en act
ãģĦ ãģ¾ãģĹãģŁ
G y
His pan
def ence
Camp bell
m atic
rele v
pe ach
Ħ¸ ìļĶ
parad ise
cere mon
annoy ed
æĮ ĩ
la x
explo it
cla use
ek er
Blo om
n ant
ate urs
he ights
E ven
Ñģ Ð¾Ð½
outra ge
Vietnam ese
ãģ¯ ãģ¯
T R
e er
cann on
Com b
Ĳë §Į
è» Ĭ
accomplish ments
Analyt ics
shap ing
re iben
b achelor
fing ert
ack ed
pyram id
Stew art
Ã¡ st
surviv or
du ct
deal ers
æ´ »
Ø¹ Ùħ
ed e
×ķ× ¢
ÏĦ Î¹
cho oses
O wn
h ire
Ð°Ð»ÑĮ Ð½ÑĭÐµ
te ch
dro it
subject ive
en es
div is
ave z
maneu ver
à¹Ħ à¸Ķ
ade ce
En s
ac ial
Prot ection
ĸ ´
form ally
wy d
ingu Ã©m
z iem
recru iting
×Ļ× ļ
n em
forb idden
B apt
×Ĳ× ł×Ļ
subs et
Mag az
n ement
aqu ela
rag on
comm ittees
Ã©ta ient
ud i
Da wn
b ore
compos er
wiÄĻ cej
ang a
dis like
D ays
åŁ º
par al
m ientras
heaven s
ãģ Ĵ
he id
trad ers
on ce
masc ara
ÏĢ ÏģÎ¿
whis per
Mus k
éĽ Ĩ
Famil ie
All ah
Ol ivia
Pr os
ol ika
il im
rÃ©p ond
P eters
bit es
v ic
em ption
visual s
lie u
Ã¼ck en
Ste el
G P
w ait
notice able
uch a
reh abil
reject ion
sl ider
regard ed
grav it
Res erve
c ount
bre eding
lon ge
ale b
kn ight
prÃ©s ent
Ĥĺ ìļĶ
Spec ifically
pos es
ve ure
ok ay
em as
ma jÄħ
web inars
cann abis
dam als
North west
p ada
crowd s
fut ures
Ã¤ n
civ ilians
S achen
æ į
tr aces
ë¨¹ ê³ł
Q U
é¡ĺ ãģĦ
I F
an Ä±n
ìĤ ´
b iblical
V ed
st oring
æĩī è©²
n ast
d Ã¶
ÑĢ Ð¾Ð¿
el ia
side ways
Under stand
Q ur
per pend
Mill ionen
water melon
Div ine
ult ur
success es
hom bre
car p
sus cept
ung kin
k ij
ul us
Ø§Ø ¬
not ch
polynom ial
å¹ ²
å ©
Ãºn ico
teles cope
polit ique
k iem
ÎŃ Î½Î±
aggreg ate
Ge off
tr il
G RA
subscri ber
im et
op ing
th erapeut
Can cer
par ade
ir rig
âĻª âĻª
clear er
b og
M aur
à¸² à¸ĩ
Shang hai
acht e
K ol
el ujah
ha v
Cr ime
se k
ë ¡ľ
ien na
G or
è Ľ
Ð¿Ð¾ÑĤ ÑĢ
L ift
S ort
P sal
p ing
ĵ Ŀ
ph is
F UCK
S yn
bam boo
¬ ìĺģ
c uts
m mm
funktion iert
ÃŃ cio
St op
imag inary
not amment
Initi ative
ãĥ ¥
K urt
lo osen
bus car
çģ «
pro ps
åĽ ī
moet en
mill i
hall s
M atch
brack ets
C ou
æ¦ Ĥ
IS A
cig arette
compet itions
beh Ã¶
vo or
Z i
O cc
ul ates
ball oons
pr onto
M iy
F ile
Ð½Ñĥ Ð»
cere al
incre ment
ref ined
åı¦ å¤ĸ
pr ising
R F
respect ful
lo ot
ask et
deix a
ing le
funcion a
Re vel
so ber
perform s
G entle
ãĤ ¨
recip ient
Ha use
ë ĥ
F rom
min isters
par adox
å°±æĺ¯ èªª
tast ing
×Ķ× Ĺ
re use
L ane
remem bers
femin ist
commit ments
project ed
g az
iyor uz
oblig ations
R o
z ar
J AM
bÄĻd Äħ
asp berry
reg ulated
w icht
Tre vor
second ly
Ih re
els h
rep orters
ÑĤÐ¾ÑĢ Ð°
oy o
inter connect
é Ĳĺ
OS H
æŃ ²
br ass
ign oring
ä»Ĭ æĹ¥
in fect
pro jekt
ore t
ÏĦÎ± Î½
ÑĤ Ð¸Ð¿
mut ta
unbox ing
Ħ °
å¡ Ĭ
adv ised
Den ver
severe ly
M hm
fl ipped
p ien
komm un
F RE
à®ĩ à®°
aint ed
kn ives
hab l
gew orden
arett es
C S
gal ax
nin ete
ê±°ë Ĥĺ
s is
advis ory
dr illing
Would n
Ã¼n f
Hel en
×ŀ× Ĳ
ap olis
rze czy
ter ra
he p
alg Ãºn
ik k
astron om
Star bucks
k Äħ
pat rol
g on
son st
encoun ters
ret rou
shark s
d or
R ever
ev apor
reserv oir
alleg ed
ul er
ver m
commer ce
f itted
ge m
tact ical
l ith
éīĦ å¡Ķ
h ad
è® Ĭ
carboh yd
length s
Î¹ Î¿
dem ographic
R ob
S kin
cc oli
simpl ified
read ily
C um
ades h
D Ã¥
us st
ig ne
et on
men or
q i
OO M
à¸Ń à¸Ļ
psych iat
eight y
T ob
ed o
ç¶ ²
Äĳ áº¿n
circ uits
LAU GH
ic ism
em or
reg ener
eg ree
bure auc
Al ber
ä¹ĭ å¾Į
W or
å¤ «
res in
by ÅĤy
I G
à¯į ,
we eds
My th
æ ¿
ëĤĺ ìĻĶ
Ã© v
á ½
Ã¶ ren
Ã§ ar
P AUL
disad vant
position ing
cock tail
agre es
n n
S ally
M s
inher ent
monet ary
nat ur
N h
Imp ort
w i
uss y
ob es
wand ering
ìĭ łë
Äħ da
etch up
dispos al
C er
z illa
vir gin
Sl ide
and el
righteous ness
Î £
ide ia
ä½ł å¥½
×¨ ×Ĳ
Com ment
pre lim
V ale
ì§Ģë Ĥľ
V anc
OM AN
y um
st re
ce m
po cz
frag ment
under go
H ank
ce ks
F PS
oc ur
deter ior
æ³ ¨
empres as
Pa ul
) ))
sc old
×Ļ× ¢
suspect ed
access ing
subst it
histor ians
ä» »
soci ed
r one
re den
ext ends
epher d
bal con
ä¸į èµ·
Sol o
polit ician
Ð¾Ð»ÑĮ Ð½Ð¾
irgend w
traum atic
rapp er
RO BERT
Re ally
æģ ¯
line up
AS E
contract or
Corpor ation
g or
Tod o
ÑģÑĤÑĢ Ð¾Ð¹
F BE
news letter
ko ÅĦ
alt ies
Ð¿ÑĢ Ð¸Ñĩ
He avy
sw ords
manip ulation
fun k
v Ã¥r
Tal iban
ë° ¥
ac ne
Ã¼r Ã¼
des wegen
D ust
sil ic
hook s
bl ij
pet its
fil me
Bere ich
Sa id
imp osed
di ary
G ates
å¸ Į
ch cia
ple asant
ë° Ŀ
moÅ¼ emy
Aust ria
bro ker
suck ed
èĢ ĥ
comp artment
cl one
×Ķ× ¢
Dan ke
noch mal
ad renal
kle inen
ãģ¾ ãģĹãĤĩãģĨ
subsequ ently
decent ral
gen etics
mon itors
App lic
wie m
Move ment
interview ing
hair s
pu Ã²
Chel sea
co her
z as
patch es
l ah
Re agan
Mar co
c ity
def ender
decor ation
ij i
l itter
Ð ¨
RE W
P ik
He e
I v
The ater
ÑĩÐ°Ñģ ÑĤÐ¾
swe ater
highlight ing
a insi
dipl omatic
Never theless
å ³
AS ON
pÃºblic o
f erm
reat ed
c od
ë¬ ¼ë
m ister
Vanc ouver
recogn izes
ec d
complic ations
en cial
ãģĹ ãģı
Ult imate
va ig
M erry
×ķ× Ĵ
Mar cus
ç¸ ½
ow ego
m ente
S m
a ja
Ta o
jud icial
entrepreneurs hip
er g
ch rist
C urt
ÑĢÐ°Ñģ Ð¿
Î» Îµ
ens ch
ÃŃ re
fo cal
Diam ond
av ÃŃa
h anno
Squ ad
associ ations
Creat ive
mess enger
be gging
dec imal
d Ä±ÅŁ
met adata
sel s
Ä° ÅŁ
á»¯ a
diffic ile
d Ä±
s laughter
Ver g
ç° ¡
æĮ ī
Te a
ass es
O k
synth es
ot iation
pain ter
el bows
architect ural
ÑĢ Ð°Ð´
gl or
im age
amp a
cul iar
ł ¨
te ve
St elle
B am
as is
ip edia
G I
Act ive
çĦ¶ åĲİ
az i
ãĤĮ ãģ¦
L ucky
Ð¿ÑĢ Ð¸ÑħÐ¾Ð´
run way
authent ication
pos ible
supp lements
surg ical
G en
feas ible
D O
out look
inter vals
an ecd
Ãł ng
stra ps
Sh u
ud d
iss enschaft
comm itting
all ey
co venant
Ped ro
less ness
Sol id
M olly
cooper ate
åĮ Ĺ
oll en
tun a
kinderg arten
S iz
duÅ¼ o
M BA
GEOR GE
F isher
å¿ ĺ
Ca esar
ÐºÑĢÐ°Ñģ Ð¸Ð²
Del hi
zy m
expl icar
ê°Ģ ì§Ģ
un s
gr ow
Ð¿ÑĢ Ð¸Ñģ
8 6
st ating
mass a
ch ter
ì»¬ë Ł¬
dep uty
S M
n oc
ge ography
Enter prise
C ant
un pack
íĻ Ķë
search es
pres idency
tri vial
p ige
ou bt
ãĤ ļ
ì¼ ĢìĿ´
budget s
u b
p ne
Y ale
ÅŁ Ã¶yle
reg ular
imper fect
AR A
fam ÃŃlia
ur m
Advent ure
ãĥ Ĭ
em ark
ne go
inappropri ate
ÑĢ Ð¾Ð»
dream ed
B ry
shut tle
pill ars
b ik
in um
Ñĥ Ñģ
Ne br
perpend icular
book ed
ber y
v ikt
be ar
es us
¨ ¹
presum ably
Mem phis
ambul ance
×ķ× ŀ×¨
thumbna il
mod ification
éĩ ı
interpret ed
prom o
Îº Î¬
Îµ ÏĢ
acoust ic
åĵ İ
non etheless
ou le
pe qu
kn ob
ãĤ £
ëıĮ ìķĦ
purch ases
Ãĩ Ã¼nkÃ¼
divid ing
per form
ract ion
health y
Tit le
u k
cer ca
argu ably
f ale
gam ers
util izing
off ended
t ava
al Ä±
med ian
infect ious
An nie
smart phones
par ole
åĸ Ŀ
Ep ic
z za
un ified
ê·¸ë ķĮ
cur tain
Ä ĥ
sex ually
uns erem
Con vention
alleg edly
Y a
H oo
en ment
æĢ ª
íĽ Ħ
gig antic
not ing
re bo
J ama
Al z
borrow ed
ì¹ ¨
per ipher
Ð¾ÑĤ Ð°
G B
Ge ar
econom ically
tele fon
qu eremos
Ð´Ð°Ð»ÑĮ ÑĪÐµ
r as
Te ach
ic ios
at os
pl edge
b au
Him self
L ink
esper o
chrom os
P ER
er le
pod ium
Ã§ os
nie u
f en
GO D
Ch ocolate
t á»«
supp ress
Î» Î·
24 0
sit Ã¤
honest y
B io
B ard
Ð¾Ð±Ñī ÐµÐ¼
mar ble
ÑĨ ÐµÐ½ÑĤ
proc ure
rot or
ber n
tu h
head set
at em
warrant y
à® ´
fil ing
Î¹ Î¬
comp rendre
imp ulse
sal v
wr itten
instit ute
K im
LGBT Q
fic iente
H is
Î±ÏħÏĦ ÏĮ
teen age
or us
S ee
Cons erv
á»ģ n
ful ness
straw berries
Ab u
o lla
NO ISE
Em ploy
wip ed
ur ger
mod ifications
íķĺ ì§Ģ
foot steps
hon ors
ad ul
fl ipping
H U
Z Y
integr ating
Ø¨ Ø±
ull a
natuur lijk
íĹ Ī
Eth ereum
ÙĬ ÙĦ
w ed
pe aks
K es
blo om
cr ashing
9 11
Ð¾ÑĤ Ð»Ð¸Ñĩ
contro llers
D od
sort ir
å¥ ĩ
Stra ight
Grac ias
gro ove
to gg
ìĭ¶ ìĿĢ
Ã© ro
out ward
W A
Rock y
sc am
hay at
ig nty
â Ħ
pl ings
antibiot ics
never theless
j ang
com merce
spo iler
glo ve
ch atter
B Y
~ ?
íĺ ¸
dem ol
we chsel
im ir
ra id
ÐµÑĢ Ñħ
en f
comment ed
optim ized
conv icted
b ats
S B
A ur
T ong
implic it
Jan et
re ag
ãģ ²
Adv anced
imp ose
×© ×Ķ
schem es
oug her
ab olic
ê±° ì£ł
slow ing
wt edy
dest ructive
land mark
ëı Ī
Walk ing
áº ¹
t ijd
Qu ant
ìĺ ¤ë
per der
no ve
Ã¤nd e
ãģ Ĺ
b ia
cust ody
b iod
æĿ± è¥¿
direct ing
... âĢĭ
re loc
demand e
ãĤĵ ãģł
o ÄŁlum
Mil k
åı ·
K ra
H onda
p ue
ele kt
begin ners
spe ar
ÃŃ nh
Lu ft
n ig
School s
for ums
Q in
pp o
Ð ®
tooth p
St yle
ì´ Ī
pun ct
rep s
A ly
amend ments
Ã¶ z
dig its
ur ai
cha otic
Mas ters
e on
C ash
C uz
bede utet
scan ning
certain ty
j ek
di jo
Cl imate
r inse
k rij
vel and
sound track
Sa fe
No va
a the
Ver b
ol er
ìĿ´ì £ł
v in
respir atory
Stud y
C AM
av ocado
Z hen
lat ency
fe athers
cont ar
f ark
bl ended
expl oded
X X
Ben im
algu Ã©m
isto ire
confident ial
m ast
ge h
dis respect
System s
Æ° a
E d
w ys
ex otic
gl owing
Ã¹ ng
oun ge
è Ħ
pal av
Sw ord
g im
C row
pot ent
b ish
ab used
J ed
g ambling
S pect
investig ators
æĻ ļ
r att
do b
D ES
h og
íĮ ħ
Ð´ÐµÐ½ÑĮ Ð³Ð¸
ë¨ ¸ë¦¬
sat uration
inher ited
Innov ation
ìĹ Īëįĺ
tang ible
dep ri
slic ed
à¥ į
th áº¿
Å ¥
6 8
cor ona
gift ed
so ir
hum ility
ìĿ´ ê±¸
flaw s
Ð¿ÑĢ Ð°ÐºÑĤÐ¸
k ald
y w
ãĤĵ ãģ§ãģĻ
ir teen
croch ets
¦¬ ê°Ģ
des e
æ¥ Ń
dz iaÅĤ
l Ã©g
ch anging
lle v
ÅĦ sk
çĶ »
198 4
orn s
W elsh
pharm aceutical
pump ing
Sh aw
p unk
va ult
kin etic
hur ricane
Inc luding
á»© c
Grand pa
ans hip
é¦Ļ æ¸¯
Ð²Ñĭ ÑħÐ¾Ð´
ľ ł
ut ta
ê²ģ ëĭĪëĭ¤
b az
pe culiar
zy Äĩ
Ell ie
learn s
Kr ishna
conse cut
emp ath
D in
trad ed
Bor is
ugg age
oll a
etern ity
Ã¨ mes
gra pp
b Ã©
F C
į ëĭĪëĭ¤
e ven
Nebr aska
ortun e
k arena
Ag ent
st ing
municip al
power ed
conse gue
Man chester
rain y
bl i
k ost
hal ten
Ah hh
ins ula
er ting
Ø§ÙĦ Ùģ
rel acion
k omen
d ome
pri ests
Int rodu
rop he
sh ore
vel t
clip se
ÑĢ ÑĥÑģ
×Ļ× ¡
sab emos
Holl and
og i
ank i
M ats
sm oked
ull ie
euro pe
transform ing
E z
op ath
ìĸ¸ ëĭĪ
ÑģÑĤ Ð°Ð½
áº± ng
à¸± à¹ī
O uch
clear ance
ust ain
solid arity
pro ving
Ñģ ÑĬ
pro long
s os
De al
17 0
m ons
lo gged
lif elong
sens ory
be hold
F AR
Ã¨t ement
Fed eration
dod ge
Sh ir
drag ons
Ar ctic
Äħ Å¼
Å į
Â º
den ke
podr ÃŃa
ÑĥÐ»ÑĮÑĤ Ð°ÑĤ
system atic
ch os
clin ics
B S
tal es
us ions
pres ervation
l ore
Prot est
á» Ľ
å¸ Ĥ
acknowled ged
Is aiah
ëķĮ ëĬĶ
× ĺ
compet itor
adv ancing
z ip
tent h
La ure
h ints
exerc ising
ŀ ľë
Intell igence
u ated
OU T
op ed
aut onomy
brand ing
Mediter ranean
Ñĸ Ðº
screw driver
su pre
st ap
jurisd iction
Setting s
fore front
com fort
multiplic ation
Mur ray
bo b
T as
t ahu
on un
et ter
proph ets
l ag
reven ues
pr Ã¡
upload ing
mach inery
asc al
Est Ã¡
G oth
B ald
S aw
stri pes
ìł ĳ
pow in
æĹ¥ æľ¬
host ile
dar um
prevent ed
algun as
hop eless
z naj
read ings
cra ving
t at
P ig
li ar
çĪ ±
multi player
Cour se
íģ ¼
K ita
custom s
respond s
end ra
è¦ ĸ
mitig ate
opp ression
qu inho
am mo
en fer
p ony
° Ķ
dich o
De b
wond ers
Ro ose
pri zes
A LEX
thank fully
tiss ues
L una
intell igible
ê° ĳ
He at
Ñģ Ð¸Ð´
Qu i
accommod ation
ä¾ ¿
K art
ien st
t arde
so aked
Case y
ì´ Ŀ
ÑĢ ÑĥÐ±
different i
left over
exch anges
sec ond
first ly
build er
ri en
d w
boun cing
? </
ëĮĢ íķ´ìĦľ
M iles
ien ie
ë¬ ´
ar ises
sub conscious
Sand y
lot tery
am iliar
coordin ator
è Į
extra ordin
Ron ald
g reen
manufact ure
Rec ord
Mark eting
credential s
up right
Her itage
gÃ¶r d
æľ į
exp ensive
áºŃ n
ì± Ħ
out lined
O ooh
orient ed
w ired
out lets
hug ely
Ð°ÑĢ ÑĤ
log istics
season al
de be
the or
pir ate
app y
kn ots
fem me
Soft ware
g ende
tem ples
lim itation
ampl itude
ha cen
aud i
ëĸ ¨
W ahl
ni h
ampl ifier
ari us
iz ado
kull an
Tw in
For ces
ab rir
E PA
A ha
ê·¸ëŀ ĺëıĦ
bi om
sa iling
J oker
F irst
è¿Ļ æĺ¯
~ ]
ors ch
vÃ¦ re
beet je
Spa ÃŁ
pol it
tur bul
ìłĢíĿ¬ ê°Ģ
c ic
Dra ke
B RI
iz aÃ§Ã£o
ìŀĪ ëĭ¤
Lyn n
trans gender
res ign
char ter
J H
Hol mes
L ip
d as
ped iatric
memor ize
evalu ating
ca k
conjun ction
res erves
sh ampoo
jud ged
wid z
V IN
ab oard
ar is
R oh
cool ed
ÑģÑĤ Ðµ
ce p
r ost
Mel bourne
Ð¾Ñĩ ÑĮ
vent il
mot ions
ìĹĪ ëĬĶëį°
Ð¼ÐµÑĢ Ð¸Ðº
gouvern ement
ä¸Ģ æ¬¡
K ivol
Kivol owitz
nÃ³ i
hyd raul
Ber g
yl um
Pr Ã¤sident
rop y
sem ic
Ñı ÐµÑĤ
Ca pe
can e
bring en
wir ing
un ya
rep ay
ª ©
w ont
Ã¡ nt
go ver
Liber ty
elect romagn
Sing h
Īë¬ ´ë
R ule
under way
Fred er
turb ine
ish i
f ÃŃs
C ulture
w ander
guer ra
sÃ¶ y
J ur
a ways
schw ier
gu ard
Ab d
u ction
arkadaÅŁ lar
H amb
? .
s ize
Or th
s way
Î Ķ
absor ption
ine es
pat rons
beach es
cont amin
intend ent
qu ilt
evolution ary
ìĿ´ë Ŀ¼
az ioni
er kl
But ler
do o
neg otiation
end um
termin ology
k ul
Unter nehmen
Ã© ric
b ad
Mitch ell
th ree
å¼ ı
subst rate
In hale
Agr ic
un ge
ad verse
ìłĢë ıĦ
pill ar
Min uten
M ate
Pl atz
hel pless
al ar
f rench
alloc ation
st ems
mar athon
HAR F
iz aciÃ³n
J ess
declar ation
EER ING
ster dam
ass ium
se iz
pres idents
t ake
wild erness
cos mic
ëª¨ë ĳĲ
st ro
pow iedz
Magaz ine
V I
wÃ¼r den
tab lets
pier ws
mort al
suppl ied
N Ã³s
Pro per
ol Ã³g
ë° ©
mis con
proxim ity
All es
l ame
vib es
de emed
ur ine
remind ing
circumst ance
ë ĵ¤ìĿ´
lapt ops
Â ²
íķ´ì ķ¼
Om ega
ãģªãĤĵ ãģĭ
N Y
pump s
r ails
sur pass
Br os
nation ally
gew esen
äº «
³´ ëĭ¤
os hing
ê° Ī
ç¤ ¾
c rian
ìĤ¬ëŀĮ ìĿ´
ca ust
æķ ´
O ber
Can on
z ung
ê° ĸ
divor ced
×Ļ× ¤
Ïģ Îµ
cel and
ci er
ÑĢ ÐµÐ·
Tod ay
orb ital
st ret
sat u
íģ ¬ë
z os
S co
Guard ian
inter est
V ER
Ã¼nd en
ÑħÐ¾ÑĤ ÐµÐ»
t it
B y
an lat
S how
o ily
ç¯ Ģ
leg ends
spec ulation
W ish
mon k
G AN
h á»į
d angers
B ene
iqu ement
ëĤĺ ìĻĢ
disc rete
Ã ĩ
cond itional
G ill
u ates
screens hot
c ado
ëª¨ë ĵł
fingert ips
M AC
d udes
c ost
bump s
ond o
dat os
be eps
P ron
K hal
z ego
Ab by
U h
Y o
T el
Î¼ ÎŃ
stress es
spreadshe et
N OW
D B
liber ation
predict able
Quest ions
sp acing
inhabit ants
z wiÄħz
ç± ³
S AP
l uggage
h ipp
è ĸ
tang ent
v Ã¥
Ð°Ð»ÑĮ Ð½Ð¾Ð¹
se hen
process ors
find et
cart ridge
administr ators
ìĸ´ì ļ
supre me
Ant i
íĶ Ħë¡ľ
inform ative
kom t
æĪĳ ä¹Ł
×Ļ× ĺ
Ass istant
list a
Ã¶ ll
distinct ive
H ud
sal on
ä¸ĭ ä¾Ĩ
m Ãªme
Mot ion
seule ment
Mens ch
pump ed
Ã¼ her
ib o
wa Å¼
quant itative
Ù ¾
ëª¨ ìĬµ
p ouch
The atre
ah i
spin ach
real ities
le y
Mar tha
re cher
e ches
period ic
oc ide
Inc red
th áº¥y
ot on
E so
gÃ©n Ã©ral
il ight
imag ining
he a
et ical
á» Ń
Dem okrat
en jo
adjust able
r ains
iew aÅ¼
just ement
just ified
Sh ake
v iv
ìĤ¬ë ¥¼
met t
Environ mental
sol amente
inter sect
198 8
sim ulate
J A
cont ing
T ek
tor ch
ins cre
model o
G eg
Democr at
Bud dy
redu nd
craft s
H ij
j ue
Kir k
k ab
á» £
aest het
J ON
super com
Ñģ Ð¸ÑĤÑĥ
ÏĮ ÏĦÎ¹
Ùħ ÙĨ
E VER
ìķĺ ìĸ´
o it
Cle veland
sixt een
water fall
ï ¸
in fl
counsel or
P unk
spre chen
æµ ģ
ex c
Sk ills
ro z
ad amente
pan cakes
ê¸°ë ¡ľ
pl ank
sovere ignty
f ui
W ii
Sch ol
âĢ İ
Spe ak
èĭ ±
c iliation
th igh
ê±° ìĿĺ
j ot
ì´ ¬ìĺģ
Ùħ ÛĮÚº
CC P
obser ver
Ã¡ b
st igma
prop riet
c idade
baÅŁ ka
Ø¹ Ø©
k re
pow iedzieÄĩ
ce ase
sk ins
vegg ies
oppos ing
op oly
J ug
Y oon
Un it
198 6
k ons
diagn ostic
empower ed
th o
c en
Ã© ration
Ñ Ĺ
phys ic
Pract ice
å· Ŀ
S outheast
Es pa
è¯ ·
Ge or
rop ortion
spec s
adapt ive
Un ity
Work s
ug en
Mont ana
Thank s
wh ipped
dun geon
vitam ins
S P
sc andal
din ero
o va
emb ro
E agle
the ology
Van essa
A IDS
ë Ĳľ
fre el
Alz heimer
Å ļ
H er
torn ado
ag ens
ìŀĪ ìĸ´ìĦľ
Trans form
process o
mill ise
profession ally
mem b
oc ation
sty ling
Oper ation
wy gl
R an
K in
á»± c
B AR
paper work
t ule
quer ia
comp ly
H air
×Ļ× Ľ
mut ation
rep rÃ©s
oct opus
important es
des erved
et r
dis asters
l Ä±nda
iqu Ã©
Des halb
so o
oss ip
relie ved
Coll ins
water proof
Y uk
cop ying
b Ã¼tÃ¼n
He ute
Ent re
resid ual
colon ies
Ã© norm
Er in
st an
tremend ously
capt ures
S ai
Ã¢ ce
m iaÅĤ
8 7
lo gging
insert ed
inher ently
ìĿ ĳ
la ve
fem mes
dÃ© p
u ks
ac ia
W ade
j ij
Vin cent
I celand
h em
ap ology
P eg
gl ued
compan ions
L iver
critic ized
le ading
sÃ¤ ga
æ¼ Ĥ
squ id
narr atives
tak a
ne z
we it
trip od
expl ic
sp inal
approxim ation
pag ar
Cal vin
l ac
pro active
Tra in
or f
st en
gra pes
me us
autom at
bi ased
cha Ã®ne
co al
ren cont
K um
fest ivals
start ups
a ka
ãģ ¹
cyl ind
s na
C RI
result ado
mil estone
Ï ħ
tele port
zy ch
6 2
åħ ³
Fe ar
nucle us
sh ines
ho v
Part ners
K as
nad ie
alert s
B ILL
str ong
N ate
Den mark
C av
OS T
ìķĦëĭ Į
any on
encour ages
Hu ang
ãģĬ é¡ĺãģĦ
ST A
pain ts
ãģĻ ãģĶ
sched ules
che ated
appro x
ï ·
Â» .
sm iles
is ure
n ered
ard en
cur t
ë Į
R oth
puis que
G ET
Ve get
produ z
Belg ium
Camp us
×¨ ×Ļ×Ŀ
ic ut
Ñģ Ð½Ð¸Ð¼
rÃ© uss
slipp ery
E w
Å ³
Leg ends
Ð¿ÐµÑĢ ÐµÐ²
Ð¾Ð³ÑĢ Ð¾Ð¼
cr os
C E
B u
ens ures
grand children
ac uerdo
prison er
th irsty
b ane
ë¹ ł
Ãºlt ima
La unch
n ity
combust ion
un icorn
fam ille
lower ing
Y ing
build ing
du o
MÃ© xico
ast ian
ë¨¹ ìĿĦ
Ral ph
re write
gl am
if ique
E r
Run ning
mean ings
che wy
Les lie
fin est
hah aha
ST EP
lon eliness
ri ans
question ed
sink ing
pes o
Wr ong
asm ine
defin itive
bu ys
cru c
c ool
ë łĪ
p Ã³
util ized
worth while
D ylan
ES E
verte x
t Ä±
F ir
z aw
G ed
d z
curs or
sw ipe
inevit ably
pos ters
inc lined
greet ing
disappoint ment
ãģ¾ ãģ§
rela Ã§Ã£o
r abb
M aine
analy zed
Sand ra
pl ague
AR E
V iv
um ed
h ando
hou ette
Ba iley
ä¸į éģİ
ys on
sem ua
hard core
â Ĥ¬
Ñĸ Ð¼
Ã© ra
OT H
foreign ers
Palestin ian
prop rio
myth s
W H
nin th
Creat or
Fl ip
em an
ki ÅŁ
zie h
Earn est
sy stem
ĸ ìĹĲ
arm ies
Out side
har us
æº ĸ
vis itor
çŃ Ķ
strength ening
9 2
v io
ë ¦¬
gre edy
po quito
ud er
K opf
ëĭ¤ìĿĮ ìĹĲ
se is
Ã¡t ico
trust ing
ÃŃ p
E mm
le en
Ø§ÙĦ ÙĨ
recruit ment
Fil ip
au ft
domin ate
rest o
Ã¡ i
C ait
r ows
country side
19 45
kern el
lo v
calcul ating
Ø¯ Ø§
W alt
empower ing
ch assis
line ar
u y
en compass
tr l
comput ational
wor ms
nhi á»ģu
astronaut s
v es
sy tu
demand ed
c s
M ol
ch ant
there by
pen is
em oc
Ñĥ Ð¶Ðµ
tre ad
Ã³ le
deep est
mach e
V ent
Am sterdam
ãĥ Ľ
re bel
uff s
doÄŁ ru
Nap ole
Î® Ïĥ
work outs
Gl ad
t ensions
Sh ift
Gu er
ì¹ľ êµ¬
Ð ĸ
impl ant
Ãª u
ê¸ Ģ
author ized
C ER
R V
le v
c imento
U FO
è¨ Ĥ
w or
d ances
Pix el
çľĭ ä¸Ģä¸ĭ
tr otzdem
ob ten
Alf red
cost ly
Stan ley
terror ists
W id
ħ ëĭĪëĭ¤
le icht
ìĿ´ì Ĭ¤
dobr ze
hes it
er zÃ¤h
ein ige
he bt
Ñģ Ðµ
unp redict
C Ã³mo
rem os
Thank fully
pur se
ch s
an cer
ul os
st ud
æľī æ²Ĵæľī
neuro log
An cient
O ut
aws ze
opp ose
antib odies
Some how
ropol itan
kt or
rock ets
dis able
catast roph
´ì ŀ
c yn
instruct ors
ema al
et wa
y uan
Gr ound
premi ere
Ñĩ Ð¸Ð²
s aint
y ba
contract ors
ê° ģ
×Ĳ× ľ
head line
complet amente
in expensive
vi u
Grand e
ble ed
ë ¬¼
tod avÃŃa
R ush
Eld er
R ou
M ira
de ine
kar ma
ents che
Holo caust
discover ies
am ents
rais on
bur gers
B ack
g dy
D aw
ìķ ł
head ed
Cl ar
In st
Lie utenant
Af D
C es
personal ized
interf aces
à¸Ī à¸°
ÑĢ ÐµÐ¶
su ic
star ving
decor ated
D U
ìĺĪìģ ĺ
qu o
dist ortion
æ® µ
ë¨¹ ìĸ´ë
st akes
æĺİ çĻ½
synt ax
bi áº¿t
th y
ic ie
bras ile
is is
sh ook
depth s
C osta
voc als
co aster
fal ou
ett le
k ennen
der ive
a ids
ent wic
vert ically
SU V
fire works
specific s
äº ¤
insist ed
des halb
G onz
lo ve
Mil itary
Pier re
Wh ose
perf ume
lower ed
cross es
transl ates
arrib a
ÃŃ do
Le v
åħ §
C iao
scholars hips
gest ures
quest Ã£o
Colon el
B ott
Ø± Ùģ
N ING
Watch ing
Pur ple
ÑģÑĤÑĢ Ð°Ð½
execut ives
K ris
or neys
co ated
Ä ©
park ed
!! !!!
Flo yd
Ä±s Ä±
zi Äĩ
motiv ate
El on
le an
Ĩ ĵ
ni Å¼
Exper ience
T ina
Koll ege
Amb assador
in ya
the ft
he ures
My st
mais on
le b
bowl s
BÃ¼r ger
Roose velt
R P
ê°Ģ ìļĶ
Del icious
erd ings
Associ ate
ous se
C ort
Repe at
Gl ory
cont ag
à¹Ģà¸ ¥
Par ad
K erry
W ave
å¿ ħ
gate way
çĲ ĥ
! ãĢį
trans cend
dam ages
gravit ational
Sh ield
prim itive
car riers
Hua wei
ÙĤ Ø¯
fel iz
M ia
åĥ ķ
Ð¿ÑĢÐ¾Ð¸Ñģ ÑħÐ¾Ð´Ð¸ÑĤ
Mur phy
Act iv
ãĥĥ ãĤ¯
dis comfort
K ell
Cent ury
sp aghetti
D urch
c ierto
Emp ress
g uts
ne g
volunt ary
å¤ ±
squ irrel
æ¬ ¢
ãģ¡ ãĤī
M az
´ìĭ ¬
ãĤ §
Sh aron
enthusi astic
ire ment
íŀĺë ĵ¤
pot rze
initi ated
ãĥ §
ÅĽ rod
ìĿ´ë ¦Ħ
rem ake
cul min
conf use
mi yor
ur ar
CT OR
bun ny
ä¸į èĥ½
el p
vamp ire
ill umin
H end
Sal v
port a
ass hole
supp orter
skept ical
kn ead
ìĺ ¬
e za
qu Ãª
D H
rod z
own ers
pl ots
del ays
belong ed
a hh
car ved
ris en
or den
ph ony
iss y
!!!! !!!!
olduÄŁ unu
r oses
intr ins
Ang st
final ement
ì§ Ŀ
ind ul
° Į
×ķ ×Ķ
ch y
Ð°ÐºÑģ Ð¸Ð¼
n ggak
li z
ele ctoral
Sh awn
ric ia
ar sen
P ep
20 30
tro phy
smo other
er re
crash es
sch ne
as i
Ma ÃŁ
ÑĩÐµÑģ ÐºÐ¸
ie ves
RE AM
stir ring
ãĥ Ģ
ust a
in ver
s ight
ord u
o or
perm itted
ÑĢ ÑĮ
ch alk
ãĤĪ ãģĹ
tatto os
Rel ations
H oy
ks am
dent ist
ë¯¸ êµŃ
so fa
Ñ Ķ
ÙĤ Ø©
ë² ł
embr aced
m il
sung lasses
seam less
be ep
Ã¤ch st
swe ets
sem aine
irre levant
desen vol
Ïģ Ïī
ang s
ar oma
pool s
gi á»Ŀ
U g
clim bed
trend ing
seper ti
B arr
p ÅĤ
Orig inally
ut to
Ĭ ¸ë
ÐºÐ¾ÑĤÐ¾ÑĢ ÑĭÑħ
eigen en
murder er
ern ame
Å ŀ
announ cing
Plat form
explan ations
pres ente
Nas Ä±l
orph an
Fort nite
ros pect
ered ith
ìĹĨ ìĸ´
NI H
w agen
rem ed
§ Ģë
m ont
Jeff rey
pr om
f Ã¼nf
cuc umber
Sum mit
åĪ Ŀ
§ ¤
J et
camb io
cub ic
disp roportion
ere z
mad ness
çĹ Ľ
t int
fuer on
k y
bip art
ãģ¾ ãģĽ
S am
ë ½
r iv
T ank
ëĨ ĵ
rend ered
ÅĽl ÄĻ
c onds
dis ruption
incon ven
qu iser
den ial
galax ies
sovere ign
pol sk
Ïģ Ïİ
me x
car acter
L ego
and en
.' "
íĶ Įë
compress or
Mo vie
applic ants
veget ation
be lle
G OOD
B au
res ent
se x
ament os
×Ķ× ĸ×Ķ
over load
silic one
ÐµÑģÑĤ Ð½Ð¾
den ken
defin it
Was n
alter ed
So o
W ing
ind re
N PC
Ïģ ÎŃ
Tw enty
Lie be
homeless ness
ould er
Ñģ ÐºÐ°Ñı
cu atro
Har vey
ph ilan
Be et
pol icing
Alex and
mÃ¼ s
h izo
ë³´ ëĭ¤
Ð¾Ñĩ ÐµÐ¼Ñĥ
íĥ ľ
cryptocur rency
l oro
summ ation
bak alÄ±m
ne uros
Ø ¥
prelim inary
horn s
T I
Ùĥ ÙĦ
h inge
rep airs
bond ing
b ize
mot ive
Niger ia
1 20
b lock
av iation
Komm un
ten ha
educ ating
sta at
æ ¶Ī
fright ened
see ks
ÑĢÑĥ ÑĪ
qu ent
N ou
pr at
Sh ot
W ork
kar ang
Light ning
nold s
roll ed
gl ass
cred ibility
IT Y
atm ospheric
ha via
che ers
Th ese
C ell
mag nes
Bra vo
se ason
ÅŁey ler
wh ite
stack ed
p ave
datas et
ret our
mat urity
qu ase
9 3
Sy m
brief ing
cult urally
ì ·¨
inh as
mad am
ajud ar
Tib et
le aks
ci le
the aters
ìĺ ¨
ãĥ ĸ
7 2
W ash
Qual ity
I van
B ent
ig ator
Gesch ichte
react ive
19 00
æ¡ Ī
contrad ict
ziem lich
coh ort
á» §
p estic
or az
tell ement
é ¾
Now adays
c rew
Ste ve
f ictional
il k
ãģĤ ãģ£
gas oline
z am
pan cake
Ã¨n cia
muit os
b ury
I Q
res ervation
Up date
je j
E yes
åı ĳ
v ive
ch ce
In i
resp ons
reflect ive
W an
en ca
emb od
Bur ger
acad emia
Cir c
Ð¿ÑĢ ÐµÐº
an lam
philan throp
Ba ÅŁ
Aud i
v ost
ä½ł çŁ¥éģĵ
re per
P eter
cons oles
scr ut
Turn er
Ð±Ñĭ Ð²
II I
è¨ ´
F light
à¸ ĸ
R aven
cor ros
fer n
prov a
Se v
reci pro
198 5
nue va
d ab
ãĢģ ãĢĮ
me z
St ark
pp ings
fr aming
post p
Sh annon
jak by
ien nent
M aps
Revel ation
ÑģÑĤ Ð°Ð»
ìļ ´ëį°
dev ant
G iving
W AS
rem a
R C
n ÃŃ
sl ipped
R ams
we et
mascul ine
E c
re op
Pl ant
M AY
sp ikes
no zzle
Wik ipedia
C oh
IS SA
chl ossen
ì§Ģ ë¥¼
ë¯ ¸ë
N eder
J osh
ÐłÐ¾ÑģÑģ Ð¸Ð¸
198 7
The ory
ek k
Ñģ Ð±
apro ve
V EN
uep rint
8 4
æ¼Ĥ äº®
C or
rich er
sandwich es
ats u
ÑĪ Ð¸Ñħ
l att
~~ ~~
f riends
derni Ã¨re
stere o
protect ions
ha ut
Every one
enter prises
Most ly
Spot ify
Se x
un g
Įë ¥¼
activ ism
ct ica
orig inal
bro ccoli
à ¦
se karang
cra fting
ãģ» ãģ©
R az
na ive
sc rolling
numer ical
schedul ing
apart ments
ç į
stret ches
ace y
H ER
ãĤ º
z inc
d arn
c Ã©l
ward robe
red irect
j um
Str ange
n Ãło
experiment ing
Ã©r Ã©
vou lez
ge be
K ann
Äĳ á»Ļ
Max im
K Ã¶n
Gl as
pol ished
num a
I ch
ritual s
S I
Ð¸ÑĤ ÐµÐ»Ð¸
inf ilt
scar f
op hy
y ine
civ ic
M eng
Ã¤n ge
Õ ¥
h istoire
O ke
ìĺ Ĩ
soll ten
é ¦¬
pres cribed
Dub ai
El tern
nation wide
sk ating
i ary
reward ed
mor ality
Mag gie
Oh hh
F ahren
ol ved
æĹ¶ åĢĻ
deux iÃ¨me
te chn
ro le
le ider
J AY
ca ffe
reich en
k art
C ute
ffect ive
bull y
ag ar
commod ity
ob rig
OU R
un pleasant
no x
J ul
ol ith
Be lla
doll s
Ho ff
advis ors
transf ers
G oku
12 00
inh os
P al
ëĺ ĳ
re pt
accomplish ment
we ave
overs ight
un healthy
fil t
pud ding
Mig uel
ch uckles
åı° çģ£
vers ion
conf ession
val ue
tri umph
sa ir
ëħ ¸
ar te
Mater ial
ut i
liqu or
Bay ern
M ail
íĸ ¥
cheap est
Jo bs
C anyon
har ma
ale y
and ro
appear ances
pro f
l agen
/ /
recover ing
ps y
ãĥ ¢
sw ift
Sp in
å¸ Ī
sein em
dol ph
f Ã¼hr
Ã¢ t
alt ijd
Mart y
Ho ch
pred ators
vor her
frag ments
past ry
comm en
S ana
ê± ´ëį°
uss en
t ela
N ina
c ries
th ighs
F lex
B uzz
ã Ħ
U s
pas o
decl ined
N y
bal ance
mas a
j os
ãģª ãĤĭ
ach u
l oud
pen a
W ald
elim ination
or age
misunder standing
end orse
og Ã³le
gre ed
kle in
×ľ ×Ķ
RE Y
E ating
semin ar
Birth day
que lle
Mult i
tir ar
per ch
la vor
J ia
mut ations
cig arettes
cous ins
caps ule
horr ific
st ur
n uts
mean while
Col in
gob ierno
g w
uh h
J ER
spe cific
alleg ations
ë© ĭ
E lla
ook ed
aff le
Apr Ã¨s
D uck
cell ular
c Ã³w
ìĬ¤í Ĭ¸
l ain
is ol
hold ers
bo oster
S asha
ģ ¼
separ ating
rein forcement
ìĹ Ĩ
O ption
pl ais
C amb
uncom mon
" :
mi yorum
mo i
ac je
Õ ¶
gem s
Ã¼ ler
ool s
enzy mes
kidna pped
k etchup
t alk
z ach
was her
ãĢĤ ãĢĤ
Arch itect
ven ue
Plan ning
éĢ ģ
Sav ior
íĬ ¼
ary a
proces o
lim bs
real izes
i ander
aj i
un ite
ìĿ ĺë
poss ÃŃvel
ra its
Ag re
ÛĮ Ú©
ìĦ ľëıĦ
æİ ī
an or
P at
der nier
Ïĥ ÏĦÎµ
lÃ¤ sst
æİ °
Me h
ng h
am ateur
è« ĸ
F e
ê ¶ģ
situ aciÃ³n
sed an
cleans ing
last ing
commun ist
AN E
ir regular
s out
Car ney
all emaal
much ÃŃs
li bro
continu ation
L or
?" ,
character ized
aj es
s ights
Ñı Ð·Ñĭ
U hh
è· ³
bir th
d ong
hab lando
sympt om
çµ Ĥ
capac itor
transport ed
ignor ant
dri p
E va
ad ject
mass ively
Eth i
Cir cle
rain fall
M ouse
ref und
Z w
asse mb
2 20
Or d
è§ Ĵ
ve ins
G iant
mÃ£ e
v ap
miss es
Î¿Ïħ ÏĤ
M o
Ent wick
ÙĨ Øª
theoret ically
te aring
trou bled
p rem
repet itive
heaven ly
Am ber
vow el
ank ing
Wir tschaft
ir r
co zy
unf amiliar
P ors
ë§ŀ ìķĦ
Tim othy
pe x
V IS
) (
super st
impro v
B eng
disconnect ed
a pt
ÑĢ ÐµÐ½
Ext ra
sh op
Connect icut
ì° ¬
G C
åı ĸ
be h
J eremy
B att
ãģ ¸
ath a
Zus ammen
scream s
gr as
aff t
Init ially
B rett
specific ations
sea weed
o ath
f ountain
ÐºÐ¾ÑĤÐ¾ÑĢ Ð¾Ð¹
Ste in
èģ ²
Corin th
conj ug
å·¦ åı³
compens ate
ëĬĲëĤĮ ìĿ´
on ze
skin care
B rian
serv ir
} }
V ik
un int
supp liers
balcon y
energ ia
omet ric
T OM
P ure
yt t
Ñĭ Ñģ
Rain bow
Pitt s
×Ļ× ŀ
stat ues
head s
cou pled
éĮ ¢
her d
ä½ ĵ
exclud ed
g ilt
Ñ İ
swo je
S ver
6 3
iss ant
dÃ¼r fen
ł Īë
kiss ing
oo f
ä»¥ ä¸Ĭ
curs ed
show ers
sw inging
reprodu ce
ãģ¨ãģĦãģĨ ãģĵãģ¨
s Ã¤tt
el come
fundament als
al mond
p Ã©
well being
hun ters
å¾ Ģ
S ec
ĵľë ¦´
em ission
psych ologist
betray ed
Rey nolds
L ES
po lling
negative ly
comb ines
×ľ ×Ĳ
Ð°ÑĢ Ð°
Î»Î» Î¬
Turn s
OT T
×Ķ ×Ļ
ais on
airl ine
restrict ion
w al
aur ait
Leban on
M OR
mon keys
Ñĸ ÑĹ
mother f
Ùĩ Ø°Ùĩ
fe u
Ã¼h ren
hyg iene
ente en
D es
diss ip
E st
s aints
pot assium
reck on
Clint us
manifest ation
App ro
Ins pect
vent ilation
k ara
à¸² à¸Ļ
favor able
ìķĬ ìķĺ
Hispan ic
à¸ ľ
×Ķ× Ľ
valid ate
Res ident
com enz
be iter
er er
ä¸Ģ èµ·
d ado
atch ing
H in
D um
haz Ä±r
Nat alie
encry ption
Ð¾Ñĩ ÐºÐ°
m ma
h ouses
analyt ical
D ang
f irst
æŃ Į
çº Į
En c
c ando
lud zi
stat istic
ìĤ °
comment ing
coord inated
Hy per
å ļ
B ert
çľ ¾
H ip
ke m
Ã¼n Ã¼
z al
Rob ot
éĸ ±
ra wn
rhet oric
ull ah
D iet
tak ich
poss essed
ĵľ ëĬĶ
w akes
R af
M art
e cc
F M
dif ic
All ez
c ured
åŃ ¦
Qu ad
be le
journ als
t ad
social es
æĩ Ĥ
what s
B ass
jest em
Sad ly
S ource
Ã¼ Ã§
alt ung
ier ten
j ullie
if a
Do or
rum or
p ies
Ð¿ÐµÑĢ Ðµ
Ð¾ÑĤ Ð²
H ost
Soph ie
ant en
A ny
Auf g
ç¨ ĭ
H DR
Rock et
res so
ver de
prÃ©s ident
indo ors
st agger
stat o
D ial
buzz ing
em er
ÐĴÑģ Ñĳ
Ð´ÐµÑĢ ÐµÐ²
pou v
strand s
ê²ĥ ìĿ´
Par l
s ip
( *
Ã¤ng t
de ber
A in
dr astically
Slow ly
Br ig
Tor ah
a che
? ??
D ob
kan nt
M ary
st am
Dem on
pl a
Fre und
B enn
high s
Ú© Ø±
Prep are
pro xy
camp o
Aug en
£ ¨ë
Ch loe
icular ly
you ng
ãģ Į
© Ķë
scratch ing
gl ac
gemeins am
an al
acaks Ä±n
For um
enn ial
Res ources
ãģ¨æĢĿ ãģĦãģ¾ãģĻ
me isten
F ell
un anim
T B
Sel bst
æ Ĩ
intimid ating
Gef Ã¼hl
ì½ Ķë¡ľ
æĭ ī
id or
ic iones
ars a
] ..
az o
k endi
T age
ter min
Pro zent
May be
l Ã©
quest i
mem es
cor re
V IP
Gall ery
ur gency
no che
kind ly
M eredith
v áºŃy
Ø§ÙĦ Ø¨
Est ado
åĩº ä¾Ĩ
o que
obes ity
O ff
Europe ans
Ã¶ d
ì¹ ´ë
ho op
enjo ys
Ch ip
pat ient
micros cope
legit im
Ïĥ Î¹
ar gent
sh am
lic ensing
ol ia
S orry
ram a
acceler ated
w ym
fair ness
Re ading
sl ack
D ok
ziÄĻk ujÄĻ
rub bing
Ð°ÑĤ Ñĥ
alloc ated
j ung
pain s
wind ing
gel iyor
C U
m ot
co ck
P osition
br os
livest ream
Bra in
prz ek
E i
C oco
sho vel
ãĥı ãĥı
e a
ch ocol
rebell ion
show c
H alo
divid end
m ission
us ando
[ "
fale i
æĽ ¸
Bl ack
Sure ly
Å »
philosop her
ä½ł ä»¬
over he
B orn
objet ivo
12 8
sche id
Naz is
sol che
l ift
ced e
ad ors
marsh m
L ORD
ĶìĿ´ íģ¬
ow ning
C ont
landsca pes
l ending
Author ity
o qu
S es
Ferr ari
respons abil
v Ã¡rios
del ic
emb ark
embro ider
framework s
sim mer
n acional
rema inder
Vie lleicht
quier es
ìĹ Ķ
test oster
i hen
O z
Ã¨ le
portray ed
Îº Îµ
Polit ik
apert ure
bl and
ind ust
Th ous
B ay
d ando
sh er
adm issions
C rew
Ñĸ Ð½
S INGING
i y
bas il
over time
threat en
partner ed
C ann
av ana
éĢĻ äºĽ
Ð¾ÑĤ Ñģ
T udo
ì½ Ķ
ëĨ Ģë
f el
re arr
in ward
Rog ers
à¹ĥ à¸«
twe ak
dry er
cess ion
rig orous
Da ar
om ics
f ats
v ad
z ipper
accept able
demonst rating
Y um
be au
r oster
predomin antly
ÐµÑĢ Ñĥ
ning ar
triang les
text ing
ber ries
ìĤ¬ ì§Ħ
éĶ Ļ
ad der
fait es
Im age
l ere
b ounds
La ur
ìķĦë ¬´ë
m io
us a
Ø °
to en
J ang
Å¾ e
ch od
an an
perse ver
S we
aug ment
ä¸ ĥ
ugg ling
iÃ¨re ment
ist les
ac jÄĻ
ma h
K IR
D ie
down hill
196 8
Ð¾ÑĢÐ¾ÑĪ Ð¾
å¹ ¹
ograph ics
tÃ¤ ssÃ¤
ê²ł ì£ł
AUDI O
prop osing
éł »
tempt ed
conver ting
Le hr
pers one
Fe eling
ìĸ´ì £¼
omb res
de ment
Ð¸ÑĤ ÐµÐ»ÐµÐ¹
comp aÃ±
æľ ª
å¸Į æľĽ
red o
condu ctor
m ia
idol s
M ul
in ex
t Ã¤mÃ¤
impact ing
day light
g il
hel fen
ents prech
wiÄĻ ks
script ures
dismiss ed
ãĥ³ ãĥĪ
Pod cast
Ùħ Ø±
ann ually
us able
li bre
rub bish
çļĦ äºº
continu ar
hum ili
spe eches
b ard
> <
olog ÃŃa
we alth
med itate
ĵ¤ ìĿĺ
C raft
è§ī å¾Ĺ
æĻ ®
ri v
Again st
cer amic
esp Ã¨re
compet ent
Hop kins
kil os
gra vel
pist on
friends hips
esc re
vo z
Ges ellschaft
unter stÃ¼t
mu j
warning s
p os
Profess ional
w szy
od le
b ands
team work
stell ung
d x
åį Ĭ
att orneys
weit ere
ãħĭãħĭ ãħĭ
Orig inal
×Ļ× Ĺ
broadcast ing
uch i
he ure
gra bs
Pla id
M in
p az
P uis
um u
it ates
co ats
bu en
he ir
pne um
×© ×¨
ens er
JUD GE
bl onde
á¹ Ľ
g ak
s Ä±k
quot ed
equip o
w ishing
ÃŃ cia
çµ Ħ
Canad ians
gover ning
Ev ans
E uro
gen res
unters chied
Beck y
³¼ ê²ĮìļĶ
e inge
Ra ise
ol and
Str ateg
er es
Veter ans
break out
sant Ã©
ad el
investig ated
pe ur
ag ile
rail road
ans ka
exp os
ator ies
Cont ent
truth s
Tra il
gu a
p ores
writ ings
U hr
That s
ic ing
Produ ction
car ne
n inguÃ©m
n on
v icious
×ķ× Ķ
recon nect
cent res
K em
cre ase
ìĿ´ë ¯¸
Ð°Ð¹ÑĤ ÐµÑģÑĮ
Hay Ä±r
Ãºn ica
owa ÅĤ
ad her
h ua
Z Z
precis o
current s
season ed
Io T
B ishop
è¨ Ī
st ed
Bern ard
æ² »
Gl enn
ktÃ³ry m
à¸· à¹Ī
ast rolog
K ot
å¤ ľ
parf ois
for wards
W iÄĻ
Î ĺ
n ano
è» į
s ub
Br ill
gr it
c ited
g ado
mel ts
for cÃ©
âĸĪ âĸĪ
b ajo
discret ion
° °
at ivity
situ ated
ãĥ« ãĤ¯
åľ° æĸ¹
am az
aqu arium
dissol ve
God s
S uper
am id
z k
éł Ĳ
amp f
hel a
' !
development al
D ise
ÑĢÐ°Ð±Ð¾ÑĤ Ð°ÐµÑĤ
snaps hot
å¥½ å¥½
Õ ¸
Y ue
H ulk
Do om
Fel ix
rÃ© f
M ale
ç· Ĭ
ph ants
EN S
Me chan
G olf
åĨį è¦ĭ
gener osity
Ã¤t ze
unlock ed
íĥ ģ
ocaly pse
Al right
×Ĳ× ĳ×ľ
Keep ing
collabor ating
ch ief
Fern ando
chef s
íĶ¼ë ¶Ģ
sk ipped
person n
ax e
che z
extract ion
A V
Gib bs
s Ä±
I AM
V iew
GR ANT
ëª ¸
ver ification
dep icted
Mo z
ou x
t ul
sc anner
comed ian
Vol ks
JE FF
è¨Ĥ éĸ±
§ Ħ
distract ion
r Ã¡
sin cer
×ŀ× ª
×© ×ł
construct ive
ar f
ëĪ Ħë
e co
r amos
renew ed
in ement
U b
Pe pper
ì§Ģ ê°Ģ
Dar win
merch and
v Ã¡rias
Ã¨ ce
N G
ìľĦ íķ´ìĦľ
Un ters
Ø¹ ÙĦ
int ric
omm a
ie ving
Carol ine
åĵ ģ
PR ES
perform er
aut our
ãģ¾ãģĽ ãĤĵ
utter ly
synth esis
les bian
retrie ve
mane ira
imp air
ment oring
Soul s
Go Pro
ÑĢ Ð°ÑĤÑĮ
c ose
SS D
I RE
up front
A un
gam er
l itt
ag gression
Like wise
Bet ty
D art
D LC
ish ment
ìŀ¥ ìĿĦ
ç» ı
c ream
Baby lon
n ug
br ar
a ynÄ±
am ily
b ike
ahah aha
lo yd
mir a
per me
G aming
firm ware
M a
assist ed
at ics
ìķŀ ìľ¼ë¡ľ
M ental
niej s
I z
ow Äħ
t ougher
de ed
èĭ ¦
sty lish
Tool s
H amp
sun screen
artic ulate
i ye
Sp read
HA VE
sw irl
spons oring
ä» ĭ
iov ascular
mes i
relax ation
mar gins
sa ÄŁ
Pr ide
ÏĦÎ¿Ïħ ÏĤ
en ci
Do es
cor pse
end urance
í ŀĺ
hair cut
interrupt ed
wind y
C aleb
Ïģ Ïĩ
Pour quoi
hol istic
uc lear
Who le
å£ «
A ct
gall on
Reg ional
ro ads
Sch ne
Ã¡ ng
ãĤĪ ãģŃ
men us
spl itting
pr iced
Î ĵ
us ername
comp ressed
y in
guard ian
go of
check list
inter change
exped ition
ex tern
infra red
eng o
den ying
pack ets
on ent
B B
Inc re
sin i
ÃŁ er
Ã¨ g
ma al
gen eration
minor ities
lle var
nom ination
cons id
×ľ× ¢
m uÅŁ
Es c
numer ator
ka ik
ktÃ³ry ch
ies en
v Ãª
US S
Pri vate
al Ã©m
ÃŃt ulo
lim b
forg iven
discl osure
ÏĦ Î¯
ning Ãºn
therapeut ic
negoti ating
N ike
ense ful
in cap
flag ship
t own
â Ī
ÏĢ Î¿Î»
wol ves
viol ations
Ar nold
interven e
he ater
recurs os
ma id
ê² ¼
Ce lebr
ca pe
St y
ain en
s ite
b ij
fr amed
publish ers
Ñĩ ÑĥÑĤÑĮ
tempt ation
cert eza
ex empt
se lling
T ask
ho on
C oc
Park s
repet ition
ÑĤ ÑĥÐ´Ð°
ens l
deÄŁ iÅŁ
Or lando
Main ten
æŃ ¢
oc ument
H C
scoot er
tight er
te ase
remo ves
kij ken
ÑģÑĥ ÑīÐµÑģÑĤÐ²
th Ã©
Ð²Ñĭ Ð³Ð»ÑıÐ´
rel ieve
mit Ã¤
station ary
Ã¶ ff
p able
ar ter
dÃ© f
r ative
con ect
sad dle
D iane
comm emor
fend im
S ÃŃ
íģ ´ë
man ge
at te
arrog ant
robot ic
gi Ãł
æĺ¯ çļĦ
neighbour hood
iss on
R I
Norm an
b rand
am ation
raz or
mur ders
ÑĤ Ñĥ
wszystk im
ut ilities
micros cop
ê ¿
da qui
oll ar
kilomet res
hom osexual
architect s
ãģ¡ ãģ¯
ni ye
L ER
micro phones
St unden
consecut ive
iend a
v Ã¤nd
D ER
lif ts
Me at
save z
M en
dism ant
ê±°ë ¥¼
ins ulation
sc all
sp ooky
par c
ball et
Whats App
fr anc
deliber ate
íħ Į
m ars
Z ur
P r
dis ciplinary
obs ession
march ing
Emer gency
ig uous
s zy
L ands
Ð¿Ð¾Ñĩ ÑĤÐ¸
env y
compassion ate
mer ci
des irable
d ale
can Ä±m
Ant ar
tem ps
config ured
Comp ared
ic ating
nic kel
ÙĪ ÙĤ
Ùĥ ÙĪÙĨ
op es
form ulas
po bl
P J
L ud
ä»Ĭ åĽŀ
Br id
H og
Br is
J en
shad ing
Y as
distur bed
recomm ending
c Ã©
H OW
ìĹĪ ìĸ´
revers ed
Interesting ly
iox id
åħ Ń
ìĺ¤ ì¼ĢìĿ´
áº¿ u
x x
ou ais
YouT ubers
R osa
H aupt
j adi
vlog s
cult ura
Leaders hip
H ep
ill um
´ë ıĻ
custom ized
mar ca
qu atro
Space X
E igen
ast ing
olduÄŁ u
for ts
ãģ ī
r iment
ien cia
ten ir
ro ffen
197 9
c ie
ëĲĺ ê³ł
es cri
ÏĮ ÏĤ
íı ¬
uz zy
C ong
ìĿ¸ ìĿ´
G reat
s il
ãģ¨ ãģĭ
mult ic
Dis k
² ķ
faz la
le vant
ab ajo
ur ry
st ru
ë¨¹ ëĬĶ
access ory
R id
20 19
down stream
æķ ¸
k az
ut an
char coal
a fect
w u
context s
fe ared
hist ories
f as
ens ible
coco a
ill ar
ge ons
spiritual ity
P ew
pharm acy
pass ions
b os
all Ã¡
thri ving
Re act
occup y
withdraw al
allow ance
Fra ktion
bud dies
id le
dissol ved
preval ent
mil itar
sens ing
po jaw
anc ora
abund ant
ha irst
ãģĤ ãĤĮ
tw ee
nÃ¤ch ste
MÃ¶glich keit
ho o
uff icient
fant ast
ed ible
ëĸ¨ ìĸ´ì
ìĽ ĥ
ve in
uc ci
devot ion
conce aler
in come
recy cled
pont os
vÃ© rit
reflect ions
A A
take away
b are
Cont act
e il
He ar
mir ac
Ger ilim
v ivo
kilogram s
Cr im
Ã» t
7 8
sincere ly
ra z
ë³ µ
arri v
concept ion
Pers ian
sj Ã¤l
st arring
ìķĦë ¬´
Fore ver
ve il
subt it
od ka
cook s
K ay
ni Ã±os
Ph one
stitch ing
finger print
é¢ ĺ
Î» Î¬
ded icate
L ob
black s
B le
b out
Äĳ ang
e ks
squ ash
K Ã¼
od i
n Æ°á»Ľc
voy age
Ø¥ ÙĦÙī
an ic
condem n
B Ã¶yle
Pol ize
ãĤ¿ ãĥ¼
ay uda
p am
à¹Ħ à¸Ľ
K athy
br ig
eg er
e agle
vis ions
íķŃ ìĥģ
sh itty
h ott
Br itt
ut ors
ENT E
æĽ ²
ph on
B ing
spr ing
æĸ ¯
et ten
pil gr
ed iyor
ÐµÐ½ÑĤ Ñĭ
ag gio
j ul
comp rend
Ø ²
perform ers
inf amous
ç ª
æ³ ģ
ot le
e ff
H ash
cow ard
B RA
D D
com ida
pl ata
fl ap
Me hr
rib ution
Y emen
myster ies
Ä° yi
st ell
eyel iner
del es
nail ed
illness es
st acks
trabaj ar
fl ower
ci u
cr ude
substant ially
home m
nep hew
stamp s
car bs
ÑĮ ÑĤÐµ
mo oth
tun nels
ac ie
æ³ ¢
Se Ã±
H era
ìķĦëĭĪ ìĹĲìļĶ
Wy oming
HD MI
L is
u ciÃ³n
ste er
Ð¸ÑĤ Ð°
ìĸ¼êµ ´
pal ms
ne on
filter ing
jou er
H Ã¶
ê²ł ìĸ´ìļĶ
story line
prz ep
thank ing
Bo eing
soft ly
j em
Ð°Ð»ÑĮ Ð½ÑĭÑħ
flash light
W OMAN
áº¯ c
ÃŃ ch
lux urious
w Ã¼n
impact ful
cons on
re u
ir ring
if ter
constitu ents
èĲ ½
9 4
T ou
g om
ìĥĿê°ģ ìĿĦ
stere otypes
moÅ¼ li
åĪĨ äº«
Ĥ ¨
pencil s
ih rem
Bes ch
K oh
Ent scheid
le k
fÃ¶r s
total mente
live ly
ent ropy
disc ern
do v
myth ology
è¨ĺ å¾Ĺ
apan ese
approx imate
Ð°ÑĤ Ð¸Ð²
if iable
Se o
åĢ Ĵ
´ìĭ¬ íŀĪ
ìĺ ·
tempor al
i T
est at
spr ink
gr und
infant ry
sch affen
ç´ Ħ
an k
ri ages
Ye on
Mor oc
inv asive
ģ Ķ
parent ing
R is
ib ile
mod s
å½ ¢
Th ing
Where ver
acknowled ging
pa wn
um mer
or b
6 9
retr ouve
rel ies
High way
a we
ãģ§ãģĻ ãģĭ
ita ire
applic ant
ais le
w orm
pay load
car re
B ach
æł ¼
ì¹ľ êµ¬ë
it ÃŃs
onna ise
s ol
èı ¯
alg ia
rock ing
best en
rit es
ba ixo
ê¸° ìĸµ
Ð¾ÑĤ ÑĢÐ¸
s im
ëĭ¤ ìĿĮ
l ick
7 1
f order
reson ance
te gen
met aph
ows er
×Ĳ× ł×Ĺ×ł×ķ
? ãĢį
sp ielen
voll ey
ĶìĿ´íģ¬ ìĹħ
lo oked
sent enced
multip lying
ide als
wahr scheinlich
depos its
bil ir
eff et
ill on
Īë §Į
testim on
z awsze
Ð¿ÑĢÐ¾ÑĨ ÐµÑģÑģ
L av
ä¸į éĮ¯
trava iller
la isse
Mount ains
ÑĢ Ð¾Ð±
exam ined
it us
W as
attrib uted
ìĬ ¹
Bar on
g ep
att ent
Coll ection
the at
C ai
well s
human o
çĹ ħ
H ast
ÑħÐ¾ÑĤ Ñı
cz as
perm its
le gg
e po
F en
th i
F oi
Ã© lect
over th
ten ant
è² ·
N ext
pra ised
sec urity
Imp act
ä¸º ä»Ģä¹Ī
v ouch
neg Ã³
un ve
critic ize
Ken ya
tact ic
lo gr
po is
pap a
spe aks
isp ers
sur plus
cold er
åį Ĺ
åĲ ¬
pl ets
V ienna
Le ad
aer ial
T ah
ÐµÐ½ÑĤ Ð¾Ð²
Gree ks
C am
mÃ¡ xim
k uin
ch io
demonst rates
an os
C ert
Ñį Ð½
blog s
ìĦľ ìļ¸
be ams
prompt ed
fright ening
Pors che
ãģĪ ãģ¦
lar Ä±nÄ±
ch illing
is phere
fl ashing
K ard
b read
ex h
ty cker
ec ological
Ma e
×ŀ×Ĳ ×ķ×ĵ
ëĤ ĺëıĦ
ys s
per gunt
pri x
izz ard
can cers
9 1
s usp
It em
ÅŁ a
p est
tak Äħ
l ymph
Pat ri
f ill
rec onna
optim ism
mim ic
ì² ľ
Mad ame
oc y
l ining
åĳĬ è¨´
erm e
fold ers
cz ÅĤ
uch ar
cur so
bre ach
p amiÄĻ
el ig
aut op
F low
program med
Pro cess
fig ur
S F
E les
program mes
diz zy
ìĭľ ê°Ħ
sn iff
Seb astian
H ye
4 000
perm ite
æ¢ Ŀ
gu it
D ais
accord ance
mod ular
ogene ous
æĭ į
pou quinho
art illery
lub ric
vol can
N H
de an
R h
minist re
åĿ Ĳ
In v
Bul gar
D aten
è İ
I m
origin ated
N ixon
inte gr
lack s
N acht
ìĸ´ë Ĥĺ
cam era
rad ish
ki ye
ang es
prÃ© f
j uk
Be e
Ð²Ð¾Ñģ Ð¿
Ãª mes
St Ã¼ck
In k
æĪĸ èĢħ
Serge ant
Mult ip
hiÃ§ bir
D Ã©
ol ph
ìĸ ¸
imp at
ìķĬ ê³ł
Ð½Ð°Ð²ÐµÑĢ Ð½Ð¾Ðµ
unpredict able
m end
ìĹĨ ìĸ´ìļĶ
jakie ÅĽ
don nÃ©
K irsty
rectang ular
empez ar
Ex change
ê° Ķ
Ã© conom
ãģĵ ãĤĵ
el in
re ibt
×Ķ× ¤
c emetery
espaÃ± ol
ol in
Ð»Ñİ Ð´
gr Ã¢ce
all en
Ph ilos
Er st
ìĥ Ī
V id
G ive
O H
Î¼ Î¿
P are
metabol ism
ma ple
ax le
D y
komm e
Ïİ Î½
great ness
ver ified
sp Ã©
Fahren heit
B ren
Conf eder
hist oire
elimin ating
Ad ding
Ab i
æĿ İ
hospital ity
t im
bon ito
part es
Sh ay
S ed
reg rets
Ñı Ð¼Ð¸
ten ants
éĢ Ł
P TS
dev i
L ate
ue z
sÃ¶ yl
ãĤ »
ìŀ¬ë °Į
togg le
mas king
Ð°Ð»ÑĮ Ð½Ð¾Ð³Ð¾
pers Ã¶n
amer ican
R GB
ens on
K A
ww ww
ÑĢ ÐµÐ³
met ics
educ ator
ãĤ· ãĥ«ãĤ¯
p ark
ÐµÐ»ÑĮ Ð·Ñı
ar us
ÑĢ ÐµÑĤ
cho ir
lar go
e ens
wat ts
Sing le
suscept ible
ic er
íĻ ĺ
E ng
fant as
specific ation
confront ed
Columb us
ar Ä±m
caffe ine
mun ition
mig rants
l ide
it ations
G eme
áº «
pl anner
stim ulate
apro xim
ce u
N om
v og
ÑĢ Ð°ÑģÑĤ
ense Ã±
sell ers
gut en
z d
C al
descri pt
recon ciliation
z inho
á¹ĩ a
ãģĺãĤĥ ãģĤ
acy j
CO L
s aw
íĻķ ìĿ¸
var it
partner ing
det ention
bomb ing
c lapping
ien cies
ond u
AM E
ê°Ļ ìĬµëĭĪëĭ¤
c ÃŃa
Ð¿Ð¾Ñģ ÑĤÐ¾
AS MR
home page
si Ã¨
an tha
P oll
cy ch
ê°ĳ ìŀĲê¸°
consider ably
ä»ĸ çļĦ
Ar ist
with stand
qual itative
K raft
Ñį Ð»ÐµÐºÑĤ
Be ad
ÐµÐºÑĤ Ð¸Ð²
cr ushing
ì³ Ĳ
nav y
ÙĪ Úº
s ho
o ak
ipp ers
so ils
pig ment
ev itar
ãĥ ĩ
f use
D ale
: "
compl Ã¨tement
ke l
à¹ Ĩ
qu atre
U M
ë§ Ĳë
æł ¹
ÃŃ r
le isure
H ousing
fold s
est ion
AR S
m ash
urp ose
accum ulated
St uff
èª ŀ
tap es
Ñģ Ð¸Ð»ÑĮÐ½Ð¾
LO VE
198 2
sc ars
capital ist
N ed
soft en
not ably
forcÃ© ment
Ra um
trad emark
fert ig
? !
æĹ ł
reinfor ced
re charge
Put ting
vill ains
hand ic
advertis ement
Øª ÙĬ
Ñģ ÑĥÐ¼
R iley
×ķ× ĳ×
äº ¬
O s
Ø§Ø ²
B oy
squ ish
ock et
test ify
æ¼ Ķ
×ľ× ŀ×
man uel
Ark ansas
if fe
analyst s
De af
j Ã³
grocer ies
Whe el
ÑĢ Ð¸Ñģ
c Ã²n
C ob
pris ons
Ã¨ ve
Cab inet
pos ed
guer re
L loyd
cl erk
cr ises
Sh o
O re
Foot ball
Ad vis
Zh eng
è į
AM Y
un for
mon aster
comp ile
imm ortal
at able
par ano
t iver
Step h
Fu ÃŁ
disc ontin
r ipe
hack ing
s iendo
segu ro
alt res
and eres
ë ¦¬ë
exp orts
æŃ ¥
tab ii
ê¸° ëĭ¤ë
bother ing
pick le
BRI AN
alt ar
transfer ring
V ors
Ùĩ ÙĪ
Z a
Fr ances
brow se
che wing
Fred dy
edit ors
Ã¤ lle
í ĮĢ
S que
C ultural
aw k
S ache
Car bon
áº¯ t
F L
N GO
S ou
h vor
un intelligible
ë² ķ
Â °
i in
der riÃ¨re
czy m
Ap ost
regard er
ag rade
C andy
ma re
introdu ces
bird s
uniqu ely
m uk
cook er
crew s
je ito
ER T
¶ Ħë
n isse
e f
cart e
Y ak
P AT
bok ki
m ates
dist int
ì½Ķë¡ľ ëĤĺ
y Ä±l
Îº Î¬Î½
configur ations
eng a
re cht
H appy
ãĤĦ ãģ£ãģ¦
in vest
reconst ruct
ÑįÑĤ Ð¾Ð¼Ñĥ
mos que
ra um
voy ez
N BC
ìŀĲ ìĭł
stur dy
ans ch
al id
mas ih
R EP
ì½ Ķë
ded uct
sal ir
w urf
il ot
M utter
F EMA
B ib
neighb oring
bl iss
ÑĤÑĢ ÐµÐ±
gren ade
e gal
fin ely
pet als
ke er
ch yba
sk ipping
th irteen
grav y
S AT
6 1
min s
IT E
so zial
rukt ur
ar th
Cub an
tre asures
fertil izer
awak ening
ë°± ìĭł
r all
dep ict
P ablo
ninete en
w att
entire ty
K S
Wood s
S ch
Ú© ÙĪ
D ry
ãģ ŀ
u ve
reconst ruction
anat omy
Īë ¥¼
b aba
listen er
shar pen
Per u
Ð²Ñĭ Ð·
recre ation
initi ate
cal or
N aj
ge e
Fe els
Snap chat
T et
N est
D af
Fin ish
Ãº c
iz ens
sp ins
emb ry
pass ages
c ient
just ification
ä»ĸ èªª
olm az
flood ed
emo ji
embr acing
disc ard
Bas ic
ag og
ìľĦ íķ´
as ylum
er in
f im
nin ja
autom ate
aller gic
Ã¿Ã¿ Ã¿Ã¿
am am
O i
Ã¤ us
in duct
B EN
z ÅĤ
kaÅ¼ dy
AM P
S ure
qu il
espe c
BS CRI
lie be
p us
ach sen
cr icket
Fr ame
ekk Ã¼r
ar b
p ÅĻ
Ð¸Ñģ Ñģ
zeg gen
dou bles
D re
t est
ins p
bo ys
m Ã£o
Ver se
mus cular
MA LE
d ulu
occas ional
L o
conom ic
rem edy
å¤ ł
âĻªâĻª âĻª
ve m
Ã¶n em
karÅŁ Ä±
Sh arp
h ur
ë°© ë²ķ
grand son
akt iv
Th rones
ìķĪ ìĹĲ
to ts
sub d
Pa ula
gra ves
B rent
sÃ¶ z
cre c
Vlad imir
çĸ «
p sy
at ri
id an
a Ãºn
standard ized
Zh u
s omething
muj eres
a it
éĹ ´
correct ed
ik ka
el ed
Care er
ow ym
roomm ate
descend ants
Napole on
bun un
Mich a
ç· ļ
desc ob
P I
palab ra
track ed
depend ence
Bar ack
åģ ĩ
fert ility
South west
incom plete
comun ic
comp ris
Rest aur
ac ron
Îº Î±
apprent ices
mus st
A br
pent ru
Cons ort
Ave c
dum plings
L R
wszystk ie
sw amp
ugg le
water color
prot on
Espa Ã±a
ock ing
tak im
V ery
dement ia
ÅŁey i
J ac
Mac Book
L iv
ffic ients
H unt
over lay
æĦŁ è¦º
Sky pe
p unkt
conf ined
Ad rian
Ø± Ùĥ
Je ep
enqu anto
an est
Ð¾ÑĤ Ð²ÐµÑĤ
irrig ation
á»ĳ n
eight een
P on
resc ued
198 3
r Ã¼
ja e
Je ong
amazing ly
F DP
back stage
c ue
ÏĥÏĦÎ· Î½
Ø§ÙĦØ µ
livest ock
W arner
maj ors
ãĥģ ãĥ£
cooper ative
Br ady
ra ined
rie b
×ĳ× ŀ×
F E
le aked
Merc ury
persu ade
transform er
Nor weg
ìĹ¬ë Ł¬
zrobi Äĩ
card iovascular
Cr ash
g ossip
ì ª½
sw ept
H orn
At Ã©
bu kan
K aw
St ories
G ary
gard ening
Quick ly
Fal con
ov at
c Ä±
Com plet
D ate
Ð¿ÑĢ Ð¸Ð¼
lÃ¤ uft
Aud rey
W ent
pel ÃŃcul
car riage
un acceptable
ny mi
ter re
uell ement
EE EE
pharm ac
h Ãµes
z ich
mig rate
F ry
Ã± ana
M uito
EO VER
fort ress
Com pan
J SON
ord nung
w arto
un gef
ìħĶ ìĦľ
pad dle
J ared
subm itting
l atch
f ug
E f
launch es
f t
ote chn
trave lled
Ø§ Ùģ
éģ ķ
pro ch
ded im
8 3
reb ound
L U
p ath
Ã¶ l
íĤ ¤
priv at
tr actor
Att ention
S er
cos es
Ã¡ ria
p al
ìĿ Ģ
success or
connect ors
ÑĥÑģÑĤ Ð°Ð½Ð¾Ð²
gen ocide
sufficient ly
A ixÃ²
stabil ize
con gest
car ving
z ost
Ð±Ñĭ ÑģÑĤÑĢÐ¾
short est
li vel
8 9
éģ Ĭ
er k
port raits
à¥ Ģ
è ĺ
bo at
ll ah
AN C
empir ical
E cho
Neder land
è¿Ļ ä¹Ī
N et
cuid ado
R oma
c alf
gi ants
Expl orer
Coll ect
al ition
Dest iny
aus ge
E du
C lo
ear rings
Tr ack
R OS
Be lle
çĻ ¾
pu eda
day time
supp lier
S V
Ex hale
gal era
c ourse
cent imeter
B ast
m ud
sang at
Phys ical
priv ately
tr ata
lyn n
ill i
ë© ĶìĿ´íģ¬ìĹħ
cryst all
pod s
áº£ n
in ator
Rec ords
å® ĺ
ÄŁim iz
isse ment
h are
h adow
D K
ìķĮ ê³ł
w yn
request ing
D onna
ìĹ ´ìĭ¬íŀĪ
ine a
ex ert
Dun can
H ah
à¤ Ĥ
L if
F inding
No v
Qu Ã¨
quarter back
ÑĦ Ð°Ðº
bipart isan
ÄŁ in
nÃ© cess
refer endum
comp iler
prob abil
trad er
æĺ ĵ
R um
ge me
bÄĻdzie my
ê¾ ¸
×ķ× ĺ
scal p
Pa use
capt ion
end anger
en lar
rot ten
ãĥĥ ãĥĪ
èĤ ī
d zi
Inst all
A y
cre ar
ÐµÐ½ÑĤ Ð°
we ighing
butter flies
G ast
äº ķ
h orn
war z
IC EOVER
coe fficients
ç°¡ åĸ®
Sp encer
H igher
cow ork
å¨ ĺ
ÐºÐ¾ÑĤÐ¾ÑĢ Ð¾Ðµ
mon it
dys function
tour naments
oy ster
B N
tr ud
sl ow
Pen ny
Od ys
Ã¦ r
f ou
enjoy ment
Ð°ÑĤ Ñĭ
wygl Äħda
Ð°Ð»ÑĮ Ð½Ð°Ñı
Prot ect
mo y
cl aw
susp icion
sacrific ed
gost o
B ig
aggress ively
vor ne
ãĥ ł
bl amed
Se hr
×¤ ×¨
c ito
se als
mu jer
We ird
fore ns
contrib utes
est ra
p og
L OL
hacer lo
f iction
Î» Î¿
å¤§ æ¦Ĥ
å£ °
G S
Cl ara
ite z
advoc ating
s ung
vert ices
navig ating
europ Ã©
çļ Ĩ
slow ed
fore ground
Indust rial
ìĭ Ń
crÃ© er
æŀ Ĺ
chn itt
un aware
cur ly
ent ar
l er
prohib ited
Hero es
Re ed
u ca
sm ok
kun na
zeit ig
im men
L un
deg li
vill agers
pres et
z ept
ud s
em it
ä½ł è¦ģ
ë ī
ëĬĶ ì§Ģ
os Ã³b
196 9
man chmal
Bro ck
mant ra
W IL
b ach
in Ã¤
el as
kel n
disci ple
qual c
de hyd
ìĿ´ë Ŀ¼ëĬĶ
A f
ìĦ± ìĿ´
R yan
pupp et
p ending
P lus
ìķĬ ìĿĦ
b á»ĭ
Se ga
Ã§ e
program mer
b li
un l
ensl aved
soci Ã©tÃ©
Äģ h
inherit ance
Bang l
erm aid
practition er
St alin
Us er
ci ble
card iac
Kore ans
dump ed
×Ķ ×Ļ×Ķ
Ã¡ is
hydraul ic
oubt edly
P it
pic nic
behÃ¶ ver
bra king
é» ĳ
ut ar
ub l
Ã¼ z
maj esty
b ers
ut able
hot ter
çħ §
ÛĮ ÙĨ
bi ases
subject ed
naught y
cir cus
ãģĹ ãģĭ
Im medi
Ste fan
Tri ple
en k
w it
recy cle
em ie
d ated
un load
pop ula
ch in
yield s
eng lish
Bon nie
sp iders
Ã ģ
er osion
éĥ¨ åĪĨ
N ICK
Ð¸Ñı Ñħ
imp art
res olutions
lith ium
conver gence
T ara
th s
Cind y
æĪĳ è¦ģ
å¹ «
D IE
ass urance
bu ckets
c ues
Qu iet
similar ity
found ational
Min ist
æ» ¿
p ian
cent r
num b
mon ks
uj ourd
en zie
skate board
d latego
Ñģ Ð¾ÑĤ
A E
master piece
Sol omon
Red dit
r iot
ab l
J azz
electromagn etic
insec ure
Comp et
ger ies
ł ×ķ
sen ators
Bris bane
Al b
utter ing
All ow
z ero
Dis play
Bl ade
App s
p Ã¤
que lla
Ga o
spoil ers
gall ons
ÙĦ ÙĬ
Z ion
æľī ä¸Ģ
on ie
rag t
Ch and
ë³ ĳ
bl unt
K ad
ra kt
cin ematic
am munition
re ne
four teen
C arn
c rit
ten ure
v u
principal mente
alle en
éĢĻ ä¸Ģ
kompl ett
dÃ¼ ny
J ames
recept or
ones elf
g uru
merch ant
l iness
over looked
harmon ic
éķ ¿
ies o
×ķ× ŀ
col m
Ad a
Ø§ Ø³
T im
recur ring
proceed s
Part icularly
Down load
et rical
mat rices
proyect o
anc ies
Uh m
c aves
ìĸ´ë ł¤
Le af
ìĿ´ì ľł
Euro pe
t Äħ
pul s
tak iego
G U
for s
Ïģ Î³
fot os
) )
ë© ¤ë
aqu ilo
K urd
ï¸ ı
pt ic
D ort
mis ery
aus o
åĬ Ł
R idge
íĸĪ ìĬµëĭĪëĭ¤
* **
å® ¢
Hmm m
ge ographic
any s
tal vez
ske let
sign atures
lit ers
Ĳë ©´
ski ing
adop ting
ha ft
symm etric
L iqu
thy roid
mis in
lud e
h ull
X D
G ust
ze ich
vibr ations
es emp
Ð²Ñģ Ñİ
Qu em
Ã¼ brig
S ke
Lyn ch
room s
art et
f est
fr Ã¼her
l ure
ä¸įå¥½ æĦıæĢĿ
ìķĮ ìķĦ
W IN
R YAN
ÐºÐ¾ÑĤÐ¾ÑĢ ÑĥÑİ
K ash
×Ķ× ŀ
saf eg
Hall elujah
stap le
sed iment
Act s
bl aming
main land
sport ing
decor ations
execut ing
par an
Doll ar
project ions
commission ed
b our
Ã¶ m
ste amed
ëŃ ĺ
pet rol
cel ular
å¸ ¶
Hung ary
rent ed
bb ie
sÃ© cur
Ã¼ ll
sw ings
bet ween
est ro
nie mand
ìĤ ¼
P ardon
ess es
M ID
central ized
Al ien
cul os
cr ise
è£¡ éĿ¢
cl asse
beit et
i ÄŁi
wh ales
per imeter
ty ing
str ony
like wise
P unch
D a
Bapt ist
sort ing
íķ ©
re hab
et a
ri ver
sa i
ãģĦãģŁ ãģł
od us
ãģĬé¡ĺãģĦ ãģĹãģ¾ãģĻ
ess ayer
tur tles
Haz rat
fab rics
cav ity
pon iewaÅ¼
schle cht
s alsa
ÅŁ ekkÃ¼r
se ating
econom ists
man g
segu inte
rat ios
const ell
long temps
u ating
spo iled
recip ients
sn iper
ä¹ĭ åīį
ìĬµ ëĭĪê¹Į
w p
LIN KE
fl are
Ad ri
Ã± as
back l
mÃ¤ ÃŁ
B end
workload s
Ñģ ÑĥÐ¿
197 5
aspir ations
A er
Ð³Ð¾Ð²Ð¾ÑĢ Ð¸ÑĤÑĮ
Q ian
å¦ Ī
comprom ised
yol k
he men
ro ve
d ens
- --
flu ores
Liver pool
Z we
l umin
á ¸
hol m
pro fits
S N
proport ions
m ica
B oh
At las
uns ure
tour ing
n ied
t ÄĻ
imper ative
dem ek
Sher iff
r ance
hom eland
H ail
G anz
y mm
M on
åĨ ·
v ida
desar roll
æĬ Ģ
intrig uing
H ugo
é ¬
WiÄĻ c
att ed
ìķĦëĭĪ ê³ł
V ari
Ã¡ d
sur real
dispar ities
m Ã³
ull en
ìŀĪ ëĭ¤ê³ł
ma ins
e ject
meth ane
marginal ized
chill i
r Ã¨s
y em
ä½ł æĺ¯
Ch un
deb ts
download ing
Ath ens
is ierung
ry n
te kn
Qu indi
éľ Ģ
tara f
h Ã©
conscious ly
fix es
uck le
may Ä±n
fre i
sp a
ì§Ħ íĸī
Ø§ÙĦØ °
Ñĥ Ðº
let t
olm uÅŁ
che esy
à¸² à¸ģ
na ire
w iden
li en
esca ping
igg s
Bl ick
c Äħ
×Ķ× ¡
oph one
ie ll
SU BSCRI
l ions
ê·¸ ê²ĥ
insp ires
guarante es
come Ã§a
Grow ing
neg lig
Frank f
ge geben
Äĳ áº§u
end lich
T T
L ith
ÏĢ Î±
aster n
A zer
lun ar
h ic
nen hum
è· ĳ
Salv ador
Pro gress
privile ges
ëıĻ ìķĪ
ant agon
Imp f
desc ub
Le i
ìĥĪë ¡ľ
Ñĩ Ðµ
dÃ³ lares
Meg han
W ire
to o
ay ing
us c
t ud
appe als
ed uc
p ane
j i
de cks
Al ter
ìĦ ¤
åĪĨ éĲĺ
product ions
WILL IAM
impl ied
fulfill ment
A ah
sa ja
x us
Îļ Î±Î¹
Ãł s
uc ch
Disc ord
S Y
j sk
Wall ace
un ction
Dan iel
k Ã¶t
ij ah
march e
dis gr
m ungkin
al ma
³ µ
extensive ly
Fl oren
All ison
ãĤ ±
ÙĬ Ùħ
ju ven
Rena issance
fundra ising
Cha os
par aly
narr ator
ecosystem s
A sh
mitig ation
A ujourd
Ide e
! ,
Â ½
land lord
defect s
ac re
uls ive
alg ae
pe k
em ba
R oc
éĽ ¢
ks om
Ã¤ che
le uk
lever aging
ê·¸ëłĩ ì§Ģ
Pal m
Ã¤ ven
l is
In sp
R ita
Ab b
ith m
super vision
revis it
pi ÄĻ
eu h
f ades
mot to
åį ¡
Sh im
relev ance
o o
o stat
n ica
cho ix
Fac ulty
Ab ove
sequ encing
nutri ent
conqu ered
digest ive
back drop
L ori
ail able
G ame
neglect ed
om orph
ill ah
kn e
si itÃ¤
works pace
Ven ice
K ne
Ñī Ð¾
ħ Ģ
H ass
v ita
Ŀ¼ë ©´
lay s
Ãªn cias
Ã© rica
L l
æ± Ĥ
Co ca
WH Y
èĪ ŀ
rout ing
[...]
